{
  "version": "1.0",
  "truncation": null,
  "padding": null,
  "added_tokens": [
    {
      "id": 0,
      "content": "<pad>",
      "single_word": false,
      "lstrip": false,
      "rstrip": false,
      "normalized": false,
      "special": true
    },
    {
      "id": 1,
      "content": "<bos>",
      "single_word": false,
      "lstrip": false,
      "rstrip": false,
      "normalized": false,
      "special": true
    },
    {
      "id": 2,
      "content": "<eos>",
      "single_word": false,
      "lstrip": false,
      "rstrip": false,
      "normalized": false,
      "special": true
    },
    {
      "id": 3,
      "content": "<unk>",
      "single_word": false,
      "lstrip": false,
      "rstrip": false,
      "normalized": false,
      "special": true
    },
    {
      "id": 4,
      "content": "<instr>",
      "single_word": false,
      "lstrip": false,
      "rstrip": false,
      "normalized": false,
      "special": true
    },
    {
      "id": 5,
      "content": "<resp>",
      "single_word": false,
      "lstrip": false,
      "rstrip": false,
      "normalized": false,
      "special": true
    }
  ],
  "normalizer": {
    "type": "NFKC"
  },
  "pre_tokenizer": {
    "type": "ByteLevel",
    "add_prefix_space": false,
    "trim_offsets": true,
    "use_regex": true
  },
  "post_processor": null,
  "decoder": {
    "type": "ByteLevel",
    "add_prefix_space": true,
    "trim_offsets": true,
    "use_regex": true
  },
  "model": {
    "type": "BPE",
    "dropout": null,
    "unk_token": "<unk>",
    "continuing_subword_prefix": null,
    "end_of_word_suffix": null,
    "fuse_unk": false,
    "byte_fallback": false,
    "ignore_merges": false,
    "vocab": {
      "<pad>": 0,
      "<bos>": 1,
      "<eos>": 2,
      "<unk>": 3,
      "<instr>": 4,
      "<resp>": 5,
      "!": 6,
      "\"": 7,
      "#": 8,
      "$": 9,
      "%": 10,
      "&": 11,
      "'": 12,
      "(": 13,
      ")": 14,
      "*": 15,
      "+": 16,
      ",": 17,
      "-": 18,
      ".": 19,
      "/": 20,
      "0": 21,
      "1": 22,
      "2": 23,
      "3": 24,
      "4": 25,
      "5": 26,
      "6": 27,
      "7": 28,
      "8": 29,
      "9": 30,
      ":": 31,
      ";": 32,
      "<": 33,
      "=": 34,
      ">": 35,
      "?": 36,
      "@": 37,
      "A": 38,
      "B": 39,
      "C": 40,
      "D": 41,
      "E": 42,
      "F": 43,
      "G": 44,
      "H": 45,
      "I": 46,
      "J": 47,
      "K": 48,
      "L": 49,
      "M": 50,
      "N": 51,
      "O": 52,
      "P": 53,
      "Q": 54,
      "R": 55,
      "S": 56,
      "T": 57,
      "U": 58,
      "V": 59,
      "W": 60,
      "X": 61,
      "Y": 62,
      "Z": 63,
      "[": 64,
      "\\": 65,
      "]": 66,
      "^": 67,
      "_": 68,
      "`": 69,
      "a": 70,
      "b": 71,
      "c": 72,
      "d": 73,
      "e": 74,
      "f": 75,
      "g": 76,
      "h": 77,
      "i": 78,
      "j": 79,
      "k": 80,
      "l": 81,
      "m": 82,
      "n": 83,
      "o": 84,
      "p": 85,
      "q": 86,
      "r": 87,
      "s": 88,
      "t": 89,
      "u": 90,
      "v": 91,
      "w": 92,
      "x": 93,
      "y": 94,
      "z": 95,
      "{": 96,
      "|": 97,
      "}": 98,
      "~": 99,
      "¡": 100,
      "¢": 101,
      "£": 102,
      "¤": 103,
      "¥": 104,
      "¦": 105,
      "§": 106,
      "¨": 107,
      "©": 108,
      "ª": 109,
      "«": 110,
      "¬": 111,
      "®": 112,
      "¯": 113,
      "°": 114,
      "±": 115,
      "²": 116,
      "³": 117,
      "´": 118,
      "µ": 119,
      "¶": 120,
      "·": 121,
      "¸": 122,
      "¹": 123,
      "º": 124,
      "»": 125,
      "¼": 126,
      "½": 127,
      "¾": 128,
      "¿": 129,
      "Â": 130,
      "Ã": 131,
      "Ä": 132,
      "Å": 133,
      "Æ": 134,
      "Ç": 135,
      "È": 136,
      "É": 137,
      "Ê": 138,
      "Ë": 139,
      "Ì": 140,
      "Í": 141,
      "Î": 142,
      "Ï": 143,
      "Ð": 144,
      "Ñ": 145,
      "Ò": 146,
      "Ó": 147,
      "Ô": 148,
      "Õ": 149,
      "Ö": 150,
      "×": 151,
      "Ø": 152,
      "Ù": 153,
      "Ú": 154,
      "Û": 155,
      "Ü": 156,
      "Ý": 157,
      "ß": 158,
      "à": 159,
      "á": 160,
      "â": 161,
      "ã": 162,
      "ä": 163,
      "å": 164,
      "æ": 165,
      "ç": 166,
      "è": 167,
      "é": 168,
      "ê": 169,
      "ë": 170,
      "ì": 171,
      "í": 172,
      "î": 173,
      "ï": 174,
      "ð": 175,
      "ó": 176,
      "ô": 177,
      "Ā": 178,
      "ā": 179,
      "Ă": 180,
      "ă": 181,
      "Ą": 182,
      "ą": 183,
      "Ć": 184,
      "ć": 185,
      "Ĉ": 186,
      "Ċ": 187,
      "Ď": 188,
      "ď": 189,
      "Đ": 190,
      "đ": 191,
      "Ē": 192,
      "ē": 193,
      "Ĕ": 194,
      "ĕ": 195,
      "Ė": 196,
      "ė": 197,
      "Ę": 198,
      "ę": 199,
      "Ě": 200,
      "ě": 201,
      "Ġ": 202,
      "ġ": 203,
      "Ģ": 204,
      "ģ": 205,
      "Ĥ": 206,
      "ĥ": 207,
      "Ħ": 208,
      "ħ": 209,
      "Ĩ": 210,
      "ĩ": 211,
      "Ī": 212,
      "ī": 213,
      "Ĭ": 214,
      "ĭ": 215,
      "Į": 216,
      "į": 217,
      "İ": 218,
      "ı": 219,
      "Ĳ": 220,
      "ĳ": 221,
      "Ĵ": 222,
      "ĵ": 223,
      "Ķ": 224,
      "ķ": 225,
      "ĸ": 226,
      "Ĺ": 227,
      "ĺ": 228,
      "Ļ": 229,
      "ļ": 230,
      "Ľ": 231,
      "ľ": 232,
      "Ŀ": 233,
      "ŀ": 234,
      "Ł": 235,
      "ł": 236,
      "Ń": 237,
      "de": 238,
      "en": 239,
      "Ġde": 240,
      "es": 241,
      "os": 242,
      "Ġp": 243,
      "ar": 244,
      "er": 245,
      "as": 246,
      "Ġl": 247,
      "Ġc": 248,
      "on": 249,
      "Ġa": 250,
      "or": 251,
      "Ġs": 252,
      "ci": 253,
      "an": 254,
      "ue": 255,
      "al": 256,
      "ad": 257,
      "Ġm": 258,
      "in": 259,
      "el": 260,
      "ti": 261,
      "Ġen": 262,
      "re": 263,
      "un": 264,
      "Ã³": 265,
      "Ġla": 266,
      "te": 267,
      "que": 268,
      "ta": 269,
      "Ġy": 270,
      "tr": 271,
      "Ġes": 272,
      "Ġque": 273,
      "to": 274,
      "Ġel": 275,
      "ĠC": 276,
      "ic": 277,
      "om": 278,
      "is": 279,
      "ÃŃ": 280,
      "Ã³n": 281,
      "Ã¡": 282,
      "Ġcon": 283,
      "Ġn": 284,
      "ĠE": 285,
      "Ġh": 286,
      "ĠP": 287,
      "do": 288,
      "Ġun": 289,
      "Ġv": 290,
      "ĠS": 291,
      "ĠA": 292,
      "ol": 293,
      "Ġd": 294,
      "Ġf": 295,
      "ĠM": 296,
      "Ġse": 297,
      "ra": 298,
      "ro": 299,
      "ciÃ³n": 300,
      "ara": 301,
      "id": 302,
      "ĠD": 303,
      "am": 304,
      "ĠL": 305,
      "Ġe": 306,
      "tu": 307,
      "Ġo": 308,
      "il": 309,
      "Ġlos": 310,
      "Ã©": 311,
      "Ġpor": 312,
      "Ġin": 313,
      "Ġg": 314,
      "Ġb": 315,
      "ien": 316,
      "le": 317,
      "us": 318,
      "ado": 319,
      "im": 320,
      "Ġdel": 321,
      "ec": 322,
      "..": 323,
      "ab": 324,
      "Ġre": 325,
      "res": 326,
      "Ġ2": 327,
      "ul": 328,
      "Ġcom": 329,
      "Ġ1": 330,
      "Ġpara": 331,
      "ĠT": 332,
      "tos": 333,
      "Ġal": 334,
      "Ġt": 335,
      "Ã±": 336,
      "cion": 337,
      "ia": 338,
      "Ġlas": 339,
      "io": 340,
      "ĠB": 341,
      "ac": 342,
      "ter": 343,
      "Ġsu": 344,
      "ĠR": 345,
      "qu": 346,
      "ĠG": 347,
      "ig": 348,
      "Ġno": 349,
      "tas": 350,
      "ur": 351,
      "aciÃ³n": 352,
      "ÃŃa": 353,
      "Ġuna": 354,
      "ente": 355,
      "ir": 356,
      "ĠF": 357,
      "âĢ": 358,
      "Ġ(": 359,
      "ĠV": 360,
      "em": 361,
      "lo": 362,
      "la": 363,
      "Ġpro": 364,
      "ch": 365,
      "ed": 366,
      "tar": 367,
      "ĠN": 368,
      "Ã¡s": 369,
      "ide": 370,
      "Ġtr": 371,
      "tes": 372,
      "ada": 373,
      "Ġper": 374,
      "ĠI": 375,
      "Ġdes": 376,
      "ma": 377,
      "ĠH": 378,
      "01": 379,
      "da": 380,
      "ca": 381,
      "cia": 382,
      "Ġcu": 383,
      "iv": 384,
      "iz": 385,
      "Ġlo": 386,
      "ib": 387,
      "00": 388,
      "ĠEs": 389,
      "tor": 390,
      "Ãº": 391,
      "go": 392,
      "ales": 393,
      "ier": 394,
      "ici": 395,
      "Ġto": 396,
      "pa": 397,
      "no": 398,
      "Ġpr": 399,
      "ando": 400,
      "tiv": 401,
      "co": 402,
      "Ġmu": 403,
      "idad": 404,
      "ica": 405,
      "ay": 406,
      "aj": 407,
      "Ġac": 408,
      "ten": 409,
      "ĠEn": 410,
      "ĠDe": 411,
      "ciones": 412,
      "Ġr": 413,
      "Ġme": 414,
      "bre": 415,
      "Ġ-": 416,
      "Ġj": 417,
      "Ġti": 418,
      "Ġex": 419,
      "Ġan": 420,
      "ĠEl": 421,
      "um": 422,
      "Ġcomo": 423,
      "eg": 424,
      "ĠLa": 425,
      "era": 426,
      "ĠJ": 427,
      "po": 428,
      "Ġpar": 429,
      "ues": 430,
      "ados": 431,
      "ĠO": 432,
      "ero": 433,
      "it": 434,
      "mo": 435,
      "ĠmÃ¡s": 436,
      "des": 437,
      "ĠâĢ": 438,
      "di": 439,
      "Ġsi": 440,
      "tam": 441,
      "ĠU": 442,
      "tro": 443,
      "ida": 444,
      "tra": 445,
      "tis": 446,
      "ran": 447,
      "por": 448,
      "Ã¡n": 449,
      "Ġ201": 450,
      "uc": 451,
      "ico": 452,
      "ios": 453,
      "ador": 454,
      "Ġso": 455,
      "ante": 456,
      "Ġser": 457,
      "Ġte": 458,
      "se": 459,
      "...": 460,
      "Ġ3": 461,
      "Ġpo": 462,
      "at": 463,
      "pe": 464,
      "ud": 465,
      "ĠCon": 466,
      "per": 467,
      "uen": 468,
      "iÃ³n": 469,
      "ĠSe": 470,
      "orm": 471,
      "ĠÂ": 472,
      "Ġres": 473,
      "bi": 474,
      "ag": 475,
      "ing": 476,
      "if": 477,
      "Ġest": 478,
      "ub": 479,
      "ĠIn": 480,
      "pl": 481,
      "iento": 482,
      "jer": 483,
      "ion": 484,
      "der": 485,
      "Ġdis": 486,
      "ratis": 487,
      "ĠCh": 488,
      "Ġha": 489,
      "Ġas": 490,
      "Ġesta": 491,
      "ez": 492,
      "Ġpre": 493,
      "tic": 494,
      "ent": 495,
      "na": 496,
      "Ġqu": 497,
      "ĠPor": 498,
      "ina": 499,
      "ri": 500,
      "Ġpue": 501,
      "eb": 502,
      "xo": 503,
      "les": 504,
      "Ġim": 505,
      "ideos": 506,
      "gu": 507,
      "dos": 508,
      "con": 509,
      "Ġtu": 510,
      "uer": 511,
      "ce": 512,
      "ĠY": 513,
      "las": 514,
      "par": 515,
      "Ġem": 516,
      "Ġten": 517,
      "Ġle": 518,
      "Ġar": 519,
      "ana": 520,
      "av": 521,
      "Ã©s": 522,
      "Ġcons": 523,
      "tre": 524,
      "tal": 525,
      "enta": 526,
      "Ã±o": 527,
      "Ġsus": 528,
      "Ġch": 529,
      "Ġam": 530,
      "Ã©n": 531,
      "ers": 532,
      "âĢĿ": 533,
      "Ġ4": 534,
      "ĠâĢľ": 535,
      "lan": 536,
      "den": 537,
      "adas": 538,
      "Ġcas": 539,
      "uev": 540,
      "Ġhac": 541,
      "ores": 542,
      "et": 543,
      "ens": 544,
      "cul": 545,
      "Ġeste": 546,
      "Ġman": 547,
      "pres": 548,
      "Ġ\"": 549,
      "ras": 550,
      "gar": 551,
      "tros": 552,
      "oc": 553,
      "ido": 554,
      "ie": 555,
      "Ġmo": 556,
      "son": 557,
      "los": 558,
      "Ã±os": 559,
      "pon": 560,
      "za": 561,
      "Ġpres": 562,
      "Ġhab": 563,
      "ĠAl": 564,
      "mente": 565,
      "ĠW": 566,
      "Ġ5": 567,
      "aliz": 568,
      "Ġcomp": 569,
      "ven": 570,
      "Ġca": 571,
      "Ġsin": 572,
      "Ġpa": 573,
      "duc": 574,
      "ora": 575,
      "Ġcam": 576,
      "ga": 577,
      "Ġdi": 578,
      "com": 579,
      "Ġinter": 580,
      "Ġtien": 581,
      "jo": 582,
      "Ġver": 583,
      "icas": 584,
      "xx": 585,
      "gun": 586,
      "Ġporno": 587,
      "ru": 588,
      "ble": 589,
      "cias": 590,
      "ces": 591,
      "Ġpero": 592,
      "Ġor": 593,
      "ot": 594,
      "Ġ0": 595,
      "ĠCom": 596,
      "ita": 597,
      "amos": 598,
      "Ġson": 599,
      "Ġw": 600,
      "Ġperson": 601,
      "car": 602,
      "titu": 603,
      "Ġsol": 604,
      "ĠAn": 605,
      "Ġsobre": 606,
      "cl": 607,
      "pos": 608,
      "Ġpas": 609,
      "til": 610,
      "cio": 611,
      "Ġinf": 612,
      "Ġob": 613,
      "ÃŃs": 614,
      "ÃŃn": 615,
      "ho": 616,
      "das": 617,
      "ĠDE": 618,
      "rec": 619,
      "encia": 620,
      "Ġco": 621,
      "paÃ±": 622,
      "ano": 623,
      "ba": 624,
      "Ġof": 625,
      "ias": 626,
      "ĠRe": 627,
      "ER": 628,
      "mos": 629,
      "ĠNo": 630,
      "Ġesc": 631,
      "Ġcor": 632,
      "Ġsal": 633,
      "Ġ|": 634,
      "gra": 635,
      "dad": 636,
      "Ãºn": 637,
      "ario": 638,
      "Ġab": 639,
      "Ġmed": 640,
      "ona": 641,
      "Ġmej": 642,
      "tan": 643,
      "Ġentre": 644,
      "cial": 645,
      "\":": 646,
      "Ġgratis": 647,
      "ej": 648,
      "Ġcar": 649,
      "Ġmi": 650,
      "ento": 651,
      "....": 652,
      "Ġvideos": 653,
      "tin": 654,
      "ĠUn": 655,
      "Ġmar": 656,
      "Ġlle": 657,
      "ĠMar": 658,
      "Ġma": 659,
      "he": 660,
      "mas": 661,
      "Ġmis": 662,
      "Ġcal": 663,
      "ES": 664,
      "amente": 665,
      "jeres": 666,
      "Ġmuy": 667,
      "tura": 668,
      "Ġ#": 669,
      "dr": 670,
      "ine": 671,
      "emos": 672,
      "Ġ6": 673,
      "ista": 674,
      "Ġpos": 675,
      "lar": 676,
      "Ġya": 677,
      ",\"": 678,
      "Ġmuch": 679,
      "je": 680,
      "esti": 681,
      "Ġus": 682,
      "ï¿": 683,
      "ï¿½": 684,
      "Ġcol": 685,
      "Ġnuev": 686,
      "Ġfor": 687,
      "tur": 688,
      "tica": 689,
      "icos": 690,
      "AR": 691,
      "tivo": 692,
      "eces": 693,
      "Ġcre": 694,
      "Ġgran": 695,
      "OS": 696,
      "Ġprim": 697,
      "ĠLos": 698,
      "Ġnos": 699,
      "Ġtodo": 700,
      "ĠÂ¿": 701,
      "cional": 702,
      "ÃŃas": 703,
      "iente": 704,
      "biÃ©n": 705,
      "min": 706,
      "EN": 707,
      "tras": 708,
      "ĠPara": 709,
      "Ġnues": 710,
      "ON": 711,
      "Ġap": 712,
      "Ġtam": 713,
      "ĠQ": 714,
      "ĠMu": 715,
      "ĠSan": 716,
      "ela": 717,
      "tado": 718,
      "Ġ7": 719,
      "Ġfin": 720,
      "ver": 721,
      "tac": 722,
      "ren": 723,
      "ĠK": 724,
      "CI": 725,
      "iones": 726,
      "Ġsexo": 727,
      "vi": 728,
      "201": 729,
      "oci": 730,
      "AS": 731,
      "ual": 732,
      "ĠAr": 733,
      "Ġtan": 734,
      "Ġdeb": 735,
      "Ġau": 736,
      "omb": 737,
      "Ġins": 738,
      "ajo": 739,
      "Ġ8": 740,
      "ros": 741,
      "og": 742,
      "Ġtrab": 743,
      "ob": 744,
      "cios": 745,
      "ĠestÃ¡": 746,
      "entes": 747,
      "idades": 748,
      "gos": 749,
      "AN": 750,
      "Ġ19": 751,
      "ĠDes": 752,
      "zo": 753,
      "Ġni": 754,
      "ill": 755,
      ").": 756,
      "Ġhay": 757,
      "tir": 758,
      "Ġop": 759,
      "Ġ9": 760,
      "Ġsig": 761,
      "fec": 762,
      "cu": 763,
      "Ġpuede": 764,
      "iendo": 765,
      "arr": 766,
      "ino": 767,
      "ones": 768,
      "Ġdesde": 769,
      "ĠX": 770,
      "Ġlu": 771,
      "oy": 772,
      "antes": 773,
      "ĠaÃ±os": 774,
      "ple": 775,
      "Ġmay": 776,
      "ĠSexo": 777,
      "iden": 778,
      "tico": 779,
      "ans": 780,
      "ea": 781,
      "erv": 782,
      "cel": 783,
      "ener": 784,
      "asta": 785,
      "OR": 786,
      "Ġad": 787,
      "ĠPorno": 788,
      "Ġhacer": 789,
      "Ġ10": 790,
      "otos": 791,
      "ĠMad": 792,
      "Ġpel": 793,
      "ĠGratis": 794,
      "ĠZ": 795,
      "rid": 796,
      "icaciÃ³n": 797,
      "),": 798,
      "uel": 799,
      "pec": 800,
      "ĠtambiÃ©n": 801,
      "Ġmas": 802,
      "bl": 803,
      "pues": 804,
      "Ġcan": 805,
      "AL": 806,
      "fer": 807,
      "pu": 808,
      "qui": 809,
      "ÃŃcul": 810,
      "trar": 811,
      "man": 812,
      "Ġmen": 813,
      "ĠCas": 814,
      "entar": 815,
      "teri": 816,
      "Ġmejor": 817,
      "able": 818,
      "ideo": 819,
      "Ġtiene": 820,
      "cor": 821,
      "icio": 822,
      "iste": 823,
      "Ġreg": 824,
      "nos": 825,
      "Ġ/": 826,
      "Ġdos": 827,
      "Ġfue": 828,
      "cip": 829,
      "ura": 830,
      "tion": 831,
      "Ġmad": 832,
      "ito": 833,
      "pre": 834,
      "Ġpol": 835,
      "Ġdo": 836,
      "me": 837,
      "gan": 838,
      "tiva": 839,
      "ja": 840,
      "otel": 841,
      "ve": 842,
      "Ġmun": 843,
      "so": 844,
      "Ġtodos": 845,
      "vil": 846,
      "Ġcos": 847,
      "ubl": 848,
      "ĠPar": 849,
      "ĠPro": 850,
      "ĠSi": 851,
      "Ġbuen": 852,
      "idos": 853,
      "adores": 854,
      "ton": 855,
      "oll": 856,
      "Ġcuando": 857,
      "Ġci": 858,
      "Ġter": 859,
      "can": 860,
      "mi": 861,
      "rar": 862,
      "eros": 863,
      "Ġcl": 864,
      "ĠAs": 865,
      "ĠLas": 866,
      "20": 867,
      "pi": 868,
      "end": 869,
      "Ġdon": 870,
      "ombre": 871,
      "cuen": 872,
      "11": 873,
      "Ġproduc": 874,
      "Ġlib": 875,
      "ris": 876,
      "Ġdif": 877,
      "Ġbien": 878,
      "Ġneces": 879,
      "Ġcual": 880,
      "gen": 881,
      "Ġk": 882,
      "!!": 883,
      "Ġfun": 884,
      "Ġ20": 885,
      "Ġ200": 886,
      "oo": 887,
      "itar": 888,
      "Ġna": 889,
      "Ġhasta": 890,
      "arios": 891,
      "ies": 892,
      "Ġu": 893,
      "Ġhan": 894,
      "ĠVideos": 895,
      "Ġvis": 896,
      "Ġda": 897,
      "ts": 898,
      "ech": 899,
      "Ġgra": 900,
      "ivers": 901,
      "all": 902,
      "Ã©r": 903,
      "Ġinform": 904,
      "vis": 905,
      "Ġtiem": 906,
      "Ġcer": 907,
      "ĠAm": 908,
      "Ġpu": 909,
      "AD": 910,
      "ular": 911,
      "idas": 912,
      "ww": 913,
      "Ġbus": 914,
      "ible": 915,
      "tt": 916,
      "Ġdeci": 917,
      "ientes": 918,
      "cas": 919,
      "Ġ,": 920,
      "quier": 921,
      "Ġ.": 922,
      "amiento": 923,
      "cur": 924,
      "ena": 925,
      "Ġmujeres": 926,
      "ex": 927,
      "icado": 928,
      "aje": 929,
      "Ġdonde": 930,
      "titutas": 931,
      "Ġparte": 932,
      "Ã±a": 933,
      "cil": 934,
      "ĠLe": 935,
      "IN": 936,
      "\",\"": 937,
      "ticos": 938,
      "Ġtra": 939,
      "uro": 940,
      "Ġalgun": 941,
      "tante": 942,
      "teg": 943,
      "entos": 944,
      "Ġpros": 945,
      "Ġ12": 946,
      "du": 947,
      "aba": 948,
      "lam": 949,
      "Ġserv": 950,
      "Ġforma": 951,
      "Ġvez": 952,
      "Ġro": 953,
      "Ġmin": 954,
      "ef": 955,
      "Ġparti": 956,
      "ĠCar": 957,
      "jos": 958,
      "Ġpe": 959,
      "Ġinv": 960,
      "anas": 961,
      "endo": 962,
      "mar": 963,
      "Ġles": 964,
      "vo": 965,
      "ap": 966,
      "ice": 967,
      "tamos": 968,
      "ola": 969,
      "ticas": 970,
      "Ġind": 971,
      "lti": 972,
      "th": 973,
      "IC": 974,
      "ug": 975,
      "Ġsab": 976,
      "10": 977,
      "tados": 978,
      "icios": 979,
      "mÃ¡s": 980,
      "ala": 981,
      "zar": 982,
      "Ġcada": 983,
      "unto": 984,
      "Ġtiempo": 985,
      "--": 986,
      "almente": 987,
      "inas": 988,
      "eo": 989,
      "ĠCam": 990,
      "Ġon": 991,
      "embre": 992,
      "Ġporque": 993,
      "Ġsex": 994,
      "Ġra": 995,
      "Ġrealiz": 996,
      "ard": 997,
      "Ġestu": 998,
      "tivos": 999,
      "urante": 1000,
      "cn": 1001,
      "Ġempres": 1002,
      "udad": 1003,
      "ĠCor": 1004,
      "Ġ15": 1005,
      "ttp": 1006,
      "icar": 1007,
      "Ġah": 1008,
      "ĠâĢĵ": 1009,
      "Ġpla": 1010,
      "pan": 1011,
      "Ġ11": 1012,
      "toria": 1013,
      "Ġespe": 1014,
      "tel": 1015,
      "ĠdÃŃa": 1016,
      "cha": 1017,
      "Ġyo": 1018,
      "Ġimpor": 1019,
      "Ġconf": 1020,
      "Ġsen": 1021,
      "ismo": 1022,
      "ĠTo": 1023,
      "uras": 1024,
      "aciones": 1025,
      "Ġade": 1026,
      "Ġcontra": 1027,
      "Ġay": 1028,
      "ĠSu": 1029,
      "ge": 1030,
      "ĠasÃŃ": 1031,
      "ÃŃo": 1032,
      "ĠÃº": 1033,
      "edad": 1034,
      "ĠaÃ±o": 1035,
      "Ġincl": 1036,
      "ip": 1037,
      "//": 1038,
      "ĠÃ©": 1039,
      "Ġplan": 1040,
      "Ġprostitutas": 1041,
      "iciÃ³n": 1042,
      "va": 1043,
      "uego": 1044,
      "cal": 1045,
      "Ġven": 1046,
      "illa": 1047,
      "Ġvida": 1048,
      "Ġhace": 1049,
      "uy": 1050,
      "icul": 1051,
      "Ġmayor": 1052,
      "Ġuno": 1053,
      "ĠMa": 1054,
      "ital": 1055,
      "Ġpersonas": 1056,
      "ientos": 1057,
      "ilidad": 1058,
      "Ġgener": 1059,
      "Ġreci": 1060,
      "anos": 1061,
      "and": 1062,
      "ĠÃ": 1063,
      "che": 1064,
      "Ãºbl": 1065,
      "Ġesto": 1066,
      "uda": 1067,
      "000": 1068,
      "://": 1069,
      "Ġfu": 1070,
      "Ġtrans": 1071,
      "Ġâ": 1072,
      "rib": 1073,
      "cre": 1074,
      "Ã³mo": 1075,
      "ĠBar": 1076,
      "miento": 1077,
      "Ġseg": 1078,
      "Ġ18": 1079,
      "Ġprof": 1080,
      "Ġsegu": 1081,
      "Ġdirec": 1082,
      "Ġval": 1083,
      "Ġmes": 1084,
      "Ġbas": 1085,
      "bar": 1086,
      "Ġ...": 1087,
      "tÃ³": 1088,
      "Ġcomun": 1089,
      "Ġthe": 1090,
      "oto": 1091,
      "ĠPr": 1092,
      "\\/": 1093,
      "incip": 1094,
      "ĠCol": 1095,
      "line": 1096,
      "Ġfuer": 1097,
      "Ġviv": 1098,
      "igo": 1099,
      "Ġactu": 1100,
      "tores": 1101,
      "Ġxx": 1102,
      "ĠAc": 1103,
      "Ġand": 1104,
      "Ãºs": 1105,
      "xim": 1106,
      "ÃŃan": 1107,
      "ĠVer": 1108,
      "ĠSal": 1109,
      "Ġz": 1110,
      "Ġencon": 1111,
      "TA": 1112,
      "\":\"": 1113,
      "Ġsolo": 1114,
      "cam": 1115,
      "19": 1116,
      "Ġlugar": 1117,
      "amil": 1118,
      "alidad": 1119,
      "ĠCo": 1120,
      "Ġmundo": 1121,
      "Ġcen": 1122,
      "imiento": 1123,
      "ĠMo": 1124,
      "Ġmismo": 1125,
      "Ġden": 1126,
      "ĠEx": 1127,
      "itas": 1128,
      "Ġcul": 1129,
      "empre": 1130,
      "Ġotros": 1131,
      "Ġhis": 1132,
      "Ġ:": 1133,
      "Ġher": 1134,
      "ĠChat": 1135,
      "ĠTra": 1136,
      "Ġpes": 1137,
      "Ġtener": 1138,
      "Ġtrav": 1139,
      "Ġquier": 1140,
      "cin": 1141,
      "cer": 1142,
      "gr": 1143,
      "ĠRes": 1144,
      "ut": 1145,
      "Ġhor": 1146,
      "__": 1147,
      "ik": 1148,
      "Ġta": 1149,
      "Ġtrabaj": 1150,
      "Ġcomple": 1151,
      "Ġrela": 1152,
      "12": 1153,
      "ĠLo": 1154,
      "Ġpodr": 1155,
      "tactos": 1156,
      "Ġrel": 1157,
      "paÃ±a": 1158,
      "tif": 1159,
      "Ġequi": 1160,
      "ich": 1161,
      "taciÃ³n": 1162,
      "Ġweb": 1163,
      "ĠpaÃŃs": 1164,
      "Ġmom": 1165,
      "ono": 1166,
      "ĠMe": 1167,
      "50": 1168,
      "ĠestÃ¡n": 1169,
      "Ġprincip": 1170,
      "ĠMujeres": 1171,
      "Ġcontr": 1172,
      "Ġprop": 1173,
      "yec": 1174,
      "Ġmucho": 1175,
      "ombres": 1176,
      "Ġdifer": 1177,
      "ĠÃºlti": 1178,
      "Ġ13": 1179,
      "be": 1180,
      "ÂŃ": 1181,
      "Ġmil": 1182,
      "Ġx": 1183,
      "cho": 1184,
      "aron": 1185,
      "Ġvideo": 1186,
      "ial": 1187,
      "truc": 1188,
      "gua": 1189,
      "IS": 1190,
      "olog": 1191,
      "ĠÃ¡": 1192,
      "ĠMadrid": 1193,
      "ord": 1194,
      "ajes": 1195,
      "Ġ14": 1196,
      "Ġtar": 1197,
      "ID": 1198,
      "echo": 1199,
      "Ġtrabajo": 1200,
      "Ġpl": 1201,
      "âĢĿ,": 1202,
      "Ġgus": 1203,
      "........": 1204,
      "Ġpon": 1205,
      "Ġform": 1206,
      "ber": 1207,
      "ĠGu": 1208,
      "br": 1209,
      "ceso": 1210,
      "Ġgu": 1211,
      "TE": 1212,
      "Ġxxx": 1213,
      "Ġne": 1214,
      "Ġ16": 1215,
      "celona": 1216,
      "eza": 1217,
      "Ġutil": 1218,
      "ted": 1219,
      "Ġcab": 1220,
      "Ġfotos": 1221,
      "Ġfr": 1222,
      "Ġhttp": 1223,
      "Ġref": 1224,
      "Ġtanto": 1225,
      "Ġdesarr": 1226,
      "iÃ³": 1227,
      "Ġej": 1228,
      "Ã³m": 1229,
      "inar": 1230,
      "ĠInter": 1231,
      "orma": 1232,
      "ĠSex": 1233,
      "Ġ[": 1234,
      "ĠNa": 1235,
      "Ġcuenta": 1236,
      "van": 1237,
      "ĠCu": 1238,
      "ece": 1239,
      "Ġeso": 1240,
      "ĠPa": 1241,
      "Ġve": 1242,
      "Ġfal": 1243,
      "bo": 1244,
      "Ġdurante": 1245,
      "Ġvol": 1246,
      "Ã³lo": 1247,
      "ĠAd": 1248,
      "ach": 1249,
      "ace": 1250,
      "El": 1251,
      "istas": 1252,
      "Ġsiempre": 1253,
      "Ġpues": 1254,
      "cos": 1255,
      "Ġestar": 1256,
      "Ġencuen": 1257,
      "Ĥ¬": 1258,
      "ĠOr": 1259,
      "Ġciudad": 1260,
      "tido": 1261,
      "ĠCal": 1262,
      "Ġsuper": 1263,
      "tamente": 1264,
      "Ġnuevo": 1265,
      "ome": 1266,
      "ern": 1267,
      "Ġtras": 1268,
      "eja": 1269,
      "Ġdef": 1270,
      "ree": 1271,
      "ĠGran": 1272,
      "30": 1273,
      "Ġresul": 1274,
      "und": 1275,
      "Ġmon": 1276,
      "ĠDi": 1277,
      "Ġmenos": 1278,
      "ĠinformaciÃ³n": 1279,
      "Ġhi": 1280,
      "ierno": 1281,
      "ĠPre": 1282,
      "Ġpi": 1283,
      "arÃ¡": 1284,
      "arse": 1285,
      "Ġdej": 1286,
      "ocer": 1287,
      "ĠMan": 1288,
      "âĢĿ.": 1289,
      "puÃ©s": 1290,
      "ciales": 1291,
      "Ġalgo": 1292,
      "RE": 1293,
      "Ġquien": 1294,
      "ya": 1295,
      "unque": 1296,
      "Ġexper": 1297,
      "Ġopin": 1298,
      "Ġera": 1299,
      "Ġcaso": 1300,
      "ĠBus": 1301,
      "Ġ17": 1302,
      "ior": 1303,
      "Es": 1304,
      "ĠLA": 1305,
      "Ġsim": 1306,
      "omin": 1307,
      "adora": 1308,
      "ĠRo": 1309,
      "RO": 1310,
      "uciÃ³n": 1311,
      "Ġcr": 1312,
      "Ġ$": 1313,
      "uegos": 1314,
      "Ġtem": 1315,
      "apa": 1316,
      "ĠPu": 1317,
      "Ġotro": 1318,
      "Ġsido": 1319,
      "Ġvar": 1320,
      "cep": 1321,
      "Ġllam": 1322,
      "ne": 1323,
      "uir": 1324,
      "Ġfamil": 1325,
      "Ġese": 1326,
      "Ġmer": 1327,
      "ĠVal": 1328,
      "ack": 1329,
      "tad": 1330,
      "ĠMas": 1331,
      "Ġutiliz": 1332,
      "Ġelec": 1333,
      "istema": 1334,
      "gres": 1335,
      "Ġpueden": 1336,
      "ares": 1337,
      "Ġtoda": 1338,
      "Ġapl": 1339,
      "ieron": 1340,
      "Ġsec": 1341,
      "Ġestos": 1342,
      "ĠUna": 1343,
      "Ġproble": 1344,
      "sa": 1345,
      "fici": 1346,
      "log": 1347,
      "Ġactiv": 1348,
      "net": 1349,
      "Ġprofes": 1350,
      "Ġpoco": 1351,
      "ĠÂ¡": 1352,
      "Ġtipo": 1353,
      "RA": 1354,
      "Ġesp": 1355,
      "Ġsea": 1356,
      "eno": 1357,
      "Ġcualquier": 1358,
      "ĠPo": 1359,
      "Ġtodas": 1360,
      "Ġvia": 1361,
      "Ġneg": 1362,
      "Â»": 1363,
      "Ġba": 1364,
      "ĠPer": 1365,
      "Ġputas": 1366,
      "Ġcasa": 1367,
      "Ġmal": 1368,
      "Ġva": 1369,
      "gas": 1370,
      "Ġaf": 1371,
      "ĠquÃ©": 1372,
      "Ġapar": 1373,
      "Ġpubl": 1374,
      "Ã¡m": 1375,
      "Ġer": 1376,
      "tÃŃcul": 1377,
      "ollando": 1378,
      "tec": 1379,
      "ile": 1380,
      "uales": 1381,
      "TO": 1382,
      "ĠdÃŃas": 1383,
      "eda": 1384,
      "15": 1385,
      "para": 1386,
      "ĠÂ«": 1387,
      "ell": 1388,
      "Ġmomento": 1389,
      "ĠSo": 1390,
      "uros": 1391,
      "\",": 1392,
      "istr": 1393,
      "Ġhum": 1394,
      "iencia": 1395,
      "Ġ30": 1396,
      "Ġhe": 1397,
      "Ġentr": 1398,
      "Ġtel": 1399,
      "Ġcap": 1400,
      "isten": 1401,
      "Ġproyec": 1402,
      "uela": 1403,
      "Ġauto": 1404,
      "terior": 1405,
      "Ġchicas": 1406,
      "TI": 1407,
      "ite": 1408,
      "Ġahora": 1409,
      "Ġ'": 1410,
      "var": 1411,
      "ate": 1412,
      "quÃŃ": 1413,
      "ivel": 1414,
      "graf": 1415,
      "Ġsan": 1416,
      "plo": 1417,
      "Ġpag": 1418,
      "uso": 1419,
      "eras": 1420,
      "tivas": 1421,
      "ĠSeg": 1422,
      "Ġorgan": 1423,
      "Ġ2017": 1424,
      "ĠSin": 1425,
      "Ġsem": 1426,
      "ĠMon": 1427,
      "ĠpÃºbl": 1428,
      "Ġantes": 1429,
      "OM": 1430,
      "18": 1431,
      "ĠEsta": 1432,
      "itos": 1433,
      "ĠQu": 1434,
      "ĠpolÃŃ": 1435,
      "ook": 1436,
      "Ġnuestro": 1437,
      "ĠQue": 1438,
      "ollo": 1439,
      "erg": 1440,
      "obierno": 1441,
      "tural": 1442,
      "UE": 1443,
      "omo": 1444,
      "Ġir": 1445,
      "Ġmujer": 1446,
      "ĠEN": 1447,
      "erÃŃa": 1448,
      "Ġide": 1449,
      "ĠCan": 1450,
      "col": 1451,
      "Ġtienen": 1452,
      "Ã¡g": 1453,
      "ustr": 1454,
      "Ġprimera": 1455,
      "val": 1456,
      "Ġmanera": 1457,
      "Ġtres": 1458,
      "ĠDel": 1459,
      "Ġsegun": 1460,
      "Ġpoder": 1461,
      "quil": 1462,
      "ivo": 1463,
      "bol": 1464,
      "Ġdere": 1465,
      "Ġprogra": 1466,
      "jas": 1467,
      "ĠSol": 1468,
      "udas": 1469,
      "cri": 1470,
      "ĠEste": 1471,
      "Ġmejores": 1472,
      "Ġsub": 1473,
      "aja": 1474,
      "Ã¡l": 1475,
      "pr": 1476,
      "Ġ24": 1477,
      "imos": 1478,
      "Ã³g": 1479,
      "form": 1480,
      "pro": 1481,
      "Ġ2018": 1482,
      "yo": 1483,
      "ĠLu": 1484,
      "Ġban": 1485,
      "16": 1486,
      "Ġgru": 1487,
      "Ãĵ": 1488,
      "ama": 1489,
      "Ġotra": 1490,
      "La": 1491,
      "Ġdar": 1492,
      "Ġ2016": 1493,
      "Ġobje": 1494,
      "ĠPero": 1495,
      "tio": 1496,
      "ian": 1497,
      "Ġpermi": 1498,
      "ĠJu": 1499,
      "Ġ22": 1500,
      "ĠEm": 1501,
      "Ġinten": 1502,
      "OL": 1503,
      "14": 1504,
      "Ġpeque": 1505,
      "Ġnuestra": 1506,
      "Ġcel": 1507,
      "lor": 1508,
      "Ġhoy": 1509,
      "Ãºm": 1510,
      "Ã¡c": 1511,
      "Ġhotel": 1512,
      "cado": 1513,
      "Ġpal": 1514,
      "una": 1515,
      "Ġrespon": 1516,
      "ves": 1517,
      "Ġhecho": 1518,
      "bio": 1519,
      "Ġcomer": 1520,
      "inos": 1521,
      "Ġdecir": 1522,
      "port": 1523,
      "idente": 1524,
      "âĢĻ": 1525,
      "Ġamb": 1526,
      "Ġsigu": 1527,
      "Ġbar": 1528,
      "Ġig": 1529,
      "dio": 1530,
      "Ġdoc": 1531,
      "uridad": 1532,
      "ĠCons": 1533,
      "ĠPel": 1534,
      "ban": 1535,
      "paÃ±ol": 1536,
      "Ġefec": 1537,
      "Ġag": 1538,
      "sos": 1539,
      "13": 1540,
      "Ġecon": 1541,
      "ĠChicas": 1542,
      "ĠtravÃ©s": 1543,
      "Ġnivel": 1544,
      "Ġnada": 1545,
      "ĠdespuÃ©s": 1546,
      "ula": 1547,
      "ĠEspaÃ±a": 1548,
      "Ġestado": 1549,
      "ĠsÃ³lo": 1550,
      "eta": 1551,
      "iculas": 1552,
      "cen": 1553,
      "ĠBo": 1554,
      "torio": 1555,
      "ire": 1556,
      "Ġsitu": 1557,
      "22": 1558,
      "Ġmill": 1559,
      "Ġpens": 1560,
      "ĠcÃ³mo": 1561,
      "rea": 1562,
      "tener": 1563,
      "Ġesa": 1564,
      "tamiento": 1565,
      "Ġante": 1566,
      "Ġotras": 1567,
      "ĠTe": 1568,
      "tera": 1569,
      "icaciones": 1570,
      "aria": 1571,
      "edia": 1572,
      "ĠES": 1573,
      "quel": 1574,
      "ĠseÃ±": 1575,
      "ĠPol": 1576,
      "Ġ25": 1577,
      "AM": 1578,
      "ene": 1579,
      "Ġexpl": 1580,
      "Ġcontin": 1581,
      "Ġencontrar": 1582,
      "panol": 1583,
      "Ġgrandes": 1584,
      "Ġdebe": 1585,
      "Ġtal": 1586,
      "ĠComo": 1587,
      "17": 1588,
      "EL": 1589,
      "Ġcara": 1590,
      "Ġhombre": 1591,
      "Ġcum": 1592,
      "Ġapro": 1593,
      "ĠWeb": 1594,
      "gent": 1595,
      "Ġespecial": 1596,
      "porte": 1597,
      "Ġdic": 1598,
      "elec": 1599,
      "cido": 1600,
      "ĠDis": 1601,
      "Ġhoras": 1602,
      "Ġinteres": 1603,
      "Ġvi": 1604,
      "Ġcur": 1605,
      "ĠCa": 1606,
      "ientras": 1607,
      "illo": 1608,
      "Ġcalidad": 1609,
      "Ġprimer": 1610,
      "Ġ23": 1611,
      "Ġjun": 1612,
      "ima": 1613,
      "cionales": 1614,
      "Ġchat": 1615,
      "200": 1616,
      "Ġconoci": 1617,
      "Ġpan": 1618,
      "xico": 1619,
      "dera": 1620,
      "ĠBarcelona": 1621,
      "Ġunos": 1622,
      "Ġonline": 1623,
      "ÃŃnea": 1624,
      "Ġgan": 1625,
      "ĠVideo": 1626,
      "Ġellos": 1627,
      "aran": 1628,
      "igos": 1629,
      "Ġcier": 1630,
      "Ġdispon": 1631,
      "24": 1632,
      "Ġnueva": 1633,
      "zas": 1634,
      "Ġmedio": 1635,
      "ĠPubl": 1636,
      "ep": 1637,
      "Ġsistema": 1638,
      "orn": 1639,
      "Ġaunque": 1640,
      "cimiento": 1641,
      "Ġ21": 1642,
      "Ġaten": 1643,
      "Ã©cn": 1644,
      "iso": 1645,
      "Ġgente": 1646,
      "Ġcomentar": 1647,
      "Ġestas": 1648,
      "Ġqued": 1649,
      "Ġtrad": 1650,
      "Ġabr": 1651,
      "Ġorganiz": 1652,
      "EC": 1653,
      "Ġbo": 1654,
      "ĠMi": 1655,
      "igh": 1656,
      "Ġimag": 1657,
      "\".": 1658,
      "ĠGra": 1659,
      "Ġequipo": 1660,
      "Ġ+": 1661,
      "ĠFotos": 1662,
      "Ġju": 1663,
      "avor": 1664,
      "ologÃŃa": 1665,
      "via": 1666,
      "Ġos": 1667,
      "cis": 1668,
      "Ġcosas": 1669,
      "pen": 1670,
      "Ġlar": 1671,
      "ĠMun": 1672,
      "ĠZapa": 1673,
      "Ġestable": 1674,
      "Ġamor": 1675,
      "ĠCen": 1676,
      "ĠPla": 1677,
      "Ġtotal": 1678,
      "uerdo": 1679,
      "ebr": 1680,
      "ĠXxx": 1681,
      "Ġestudi": 1682,
      "ibu": 1683,
      "Ġempresa": 1684,
      "Ġ2015": 1685,
      "IA": 1686,
      "ĠEL": 1687,
      "Ġdatos": 1688,
      "ĠhabÃŃa": 1689,
      "ĠYo": 1690,
      "ĠIN": 1691,
      "mÃ¡": 1692,
      "Ġcapa": 1693,
      "imo": 1694,
      "Ġgay": 1695,
      "Qu": 1696,
      "ollar": 1697,
      "ty": 1698,
      "uncios": 1699,
      "Ġedi": 1700,
      "Ġprecio": 1701,
      "dido": 1702,
      "Ġagua": 1703,
      "ables": 1704,
      "Ġlim": 1705,
      "ĠUnivers": 1706,
      "Ġclas": 1707,
      "ĠHotel": 1708,
      "Ġconv": 1709,
      "ĠMÃ©": 1710,
      "tidad": 1711,
      "Ġ=": 1712,
      "ĠFran": 1713,
      "Ġi": 1714,
      "ull": 1715,
      "Ġmillones": 1716,
      "ĠMujer": 1717,
      "ejas": 1718,
      "ron": 1719,
      "Ġsino": 1720,
      "ĠserÃ¡": 1721,
      "Ġejem": 1722,
      "Ġconside": 1723,
      "25": 1724,
      "Ġpun": 1725,
      "Ġdise": 1726,
      "UR": 1727,
      "turas": 1728,
      "Ġprecios": 1729,
      "ĠNuev": 1730,
      "Ġ2019": 1731,
      "ĠContactos": 1732,
      "Ġventa": 1733,
      "rÃ¡": 1734,
      "lu": 1735,
      "Ġdin": 1736,
      "isiÃ³n": 1737,
      "iga": 1738,
      "ĠIns": 1739,
      "IL": 1740,
      "Ġ2012": 1741,
      "Ġveces": 1742,
      "Ġautor": 1743,
      "ĠReg": 1744,
      "doles": 1745,
      "Ġimportante": 1746,
      "Ġis": 1747,
      "Ġesper": 1748,
      "ĠÃ©l": 1749,
      "Ġhistoria": 1750,
      "Ġmuchos": 1751,
      "oma": 1752,
      "est": 1753,
      "www": 1754,
      "elo": 1755,
      "Ġpasado": 1756,
      "echa": 1757,
      "ÃĵN": 1758,
      "ĠâĤ¬": 1759,
      "Ġfinal": 1760,
      "vol": 1761,
      "entaciÃ³n": 1762,
      "ĠsÃŃ": 1763,
      "Ġorig": 1764,
      "Ġ2013": 1765,
      "Ġtus": 1766,
      "ĠademÃ¡s": 1767,
      "fa": 1768,
      "Ġlleg": 1769,
      "Ġsocial": 1770,
      "Ġconocer": 1771,
      "Ġaquel": 1772,
      "tim": 1773,
      "tÃŃculo": 1774,
      "otros": 1775,
      "ÃŃf": 1776,
      "Ġhombres": 1777,
      "iar": 1778,
      "Ġdijo": 1779,
      "ED": 1780,
      "rado": 1781,
      "unci": 1782,
      "inal": 1783,
      "Ġservicios": 1784,
      "icip": 1785,
      "US": 1786,
      "ĠJos": 1787,
      "ph": 1788,
      "ĠAu": 1789,
      "33": 1790,
      "ĠBuen": 1791,
      "ĠÃºn": 1792,
      "ACI": 1793,
      "Ġfuncion": 1794,
      "puesta": 1795,
      "ĠCON": 1796,
      "ĠNacional": 1797,
      "tÃ¡": 1798,
      "ĠespaÃ±ol": 1799,
      "Ġfavor": 1800,
      "Ġimp": 1801,
      "ĠThe": 1802,
      "Ġprofesion": 1803,
      "In": 1804,
      "Ġporn": 1805,
      "tancia": 1806,
      "ĠCl": 1807,
      "Ġcontrol": 1808,
      "Ġservicio": 1809,
      "Ġuso": 1810,
      "Ã±as": 1811,
      "Ġ2014": 1812,
      "ive": 1813,
      "vin": 1814,
      "are": 1815,
      "Ġalgunos": 1816,
      "Ã³s": 1817,
      "Ġdesc": 1818,
      "Ġsalud": 1819,
      "Ġkm": 1820,
      "dolesc": 1821,
      "En": 1822,
      "ĠAde": 1823,
      "abor": 1824,
      "Ġrepres": 1825,
      "Ġth": 1826,
      "Ġcompar": 1827,
      "Ġposible": 1828,
      "atro": 1829,
      "duci": 1830,
      "Ġfollando": 1831,
      "ĠPe": 1832,
      "Ġmode": 1833,
      "40": 1834,
      "Ġ>": 1835,
      "Ġproductos": 1836,
      "ort": 1837,
      "99": 1838,
      "ĠPres": 1839,
      "Ġoc": 1840,
      "ĠNeg": 1841,
      "Ġ100": 1842,
      "pren": 1843,
      "Ġmaduras": 1844,
      "Ġembar": 1845,
      "ĠaquÃŃ": 1846,
      "ment": 1847,
      "Ġestr": 1848,
      "Ġpersona": 1849,
      "Ġespa": 1850,
      "Ġpregun": 1851,
      "pti": 1852,
      "ulio": 1853,
      "nif": 1854,
      "abr": 1855,
      "ĠnÃºm": 1856,
      "ĠMin": 1857,
      "Ġ&": 1858,
      "puesto": 1859,
      "tud": 1860,
      "cidad": 1861,
      "acer": 1862,
      "ĠniÃ±os": 1863,
      "ĠTam": 1864,
      "iva": 1865,
      "Ġcin": 1866,
      "ger": 1867,
      "nes": 1868,
      "up": 1869,
      "Ġinvesti": 1870,
      "Ġjug": 1871,
      "Ġhabita": 1872,
      ".-": 1873,
      "ist": 1874,
      "Ġning": 1875,
      "UN": 1876,
      "ĠLib": 1877,
      "Ġdiv": 1878,
      "Ġgracias": 1879,
      "ded": 1880,
      "osa": 1881,
      "Ġleg": 1882,
      "Ġdentro": 1883,
      "Ã³r": 1884,
      "IB": 1885,
      "Ġpersonal": 1886,
      "demos": 1887,
      "ws": 1888,
      "ĠmÃ©": 1889,
      "Ġbr": 1890,
      "Ġgeneral": 1891,
      "ys": 1892,
      "ĠMÃ¡s": 1893,
      "Ġmedi": 1894,
      "Ġmientras": 1895,
      "eas": 1896,
      "Ġdiferentes": 1897,
      "ĠPutas": 1898,
      "Ġet": 1899,
      "aga": 1900,
      "Ġdescar": 1901,
      "Ġconten": 1902,
      "Ġsue": 1903,
      "Ã©c": 1904,
      "23": 1905,
      "Ġella": 1906,
      "ĠMor": 1907,
      "Ġrecon": 1908,
      "Ġopiniones": 1909,
      "60": 1910,
      "Ġapo": 1911,
      "Ã¡p": 1912,
      "ĠsegÃºn": 1913,
      "icial": 1914,
      "tran": 1915,
      "fru": 1916,
      "Ġgas": 1917,
      "Ġale": 1918,
      "Ġayud": 1919,
      "ke": 1920,
      "Ġnuestros": 1921,
      "Ãį": 1922,
      "Ġbuena": 1923,
      "Ġllegar": 1924,
      "ĠMej": 1925,
      "ensa": 1926,
      "onas": 1927,
      "Ġhacia": 1928,
      "bles": 1929,
      "ity": 1930,
      "80": 1931,
      "Ġley": 1932,
      "fr": 1933,
      "zÃ³n": 1934,
      "tacto": 1935,
      "ĠâĢ¢": 1936,
      "ĠÂ»": 1937,
      "Ġproceso": 1938,
      "iel": 1939,
      "ff": 1940,
      "Ġmuchas": 1941,
      "ĠOn": 1942,
      "Ġsemana": 1943,
      "Ġminu": 1944,
      "ĠGay": 1945,
      "ĠMed": 1946,
      "ĠNe": 1947,
      "----": 1948,
      "icia": 1949,
      "Ġrecom": 1950,
      "Ġmor": 1951,
      "Ġol": 1952,
      "Ġcontinu": 1953,
      "ĠJo": 1954,
      "dose": 1955,
      "ĠMÃ©xico": 1956,
      "bas": 1957,
      "Ġusu": 1958,
      "Ġfoto": 1959,
      "Ġanti": 1960,
      "cina": 1961,
      "one": 1962,
      "pas": 1963,
      "ĠcompaÃ±": 1964,
      ");": 1965,
      "ibles": 1966,
      "chos": 1967,
      "Ġmeses": 1968,
      "ĠTr": 1969,
      "Ġgrupo": 1970,
      "crip": 1971,
      "Ġempresas": 1972,
      "ĠTor": 1973,
      "Ġrecor": 1974,
      "Ġ27": 1975,
      "Â°": 1976,
      "27": 1977,
      "Ġinstal": 1978,
      "atal": 1979,
      "fo": 1980,
      "Ġnego": 1981,
      "Ġigual": 1982,
      "ĠÃģ": 1983,
      "Ġzona": 1984,
      "ibilidad": 1985,
      "AC": 1986,
      "Ġcuer": 1987,
      "Ġembargo": 1988,
      "ĠmÃ¡": 1989,
      "ĠpelÃŃcul": 1990,
      "ques": 1991,
      "del": 1992,
      "ha": 1993,
      "Ġinm": 1994,
      "Ġfil": 1995,
      "Ġbajo": 1996,
      "ĠRec": 1997,
      "ĠTel": 1998,
      "aban": 1999,
      "iene": 2000,
      "mate": 2001,
      "Ġtor": 2002,
      "reg": 2003,
      "Ġben": 2004,
      "tem": 2005,
      "Ġbol": 2006,
      "ĠfÃ¡": 2007,
      "Ġjuegos": 2008,
      "Ġdir": 2009,
      "Ġred": 2010,
      "Ġlab": 2011,
      "Ġ28": 2012,
      "pel": 2013,
      "Ġcompr": 2014,
      "ĠprÃ³": 2015,
      "Ġat": 2016,
      "posi": 2017,
      "26": 2018,
      "Ġ26": 2019,
      "bianas": 2020,
      "Ġespec": 2021,
      "ck": 2022,
      "udo": 2023,
      "pla": 2024,
      "ft": 2025,
      "Ġjo": 2026,
      "ĠJuan": 2027,
      "Ġejemplo": 2028,
      "Ġanim": 2029,
      "Ġtri": 2030,
      "Ġobs": 2031,
      "eric": 2032,
      "Ġdesarrollo": 2033,
      "ĠtÃ©cn": 2034,
      "29": 2035,
      "unca": 2036,
      "Ġperfec": 2037,
      "Ġdice": 2038,
      "anci": 2039,
      "tegor": 2040,
      "emb": 2041,
      "28": 2042,
      "ciendo": 2043,
      "iera": 2044,
      "vel": 2045,
      "44": 2046,
      "tada": 2047,
      "estiÃ³n": 2048,
      "IT": 2049,
      "ticias": 2050,
      "istro": 2051,
      "gel": 2052,
      "Ġ50": 2053,
      "No": 2054,
      "ĠÂ·": 2055,
      "nas": 2056,
      "ĠEuro": 2057,
      "Ġvuel": 2058,
      "Ġfa": 2059,
      "Ġmisma": 2060,
      "ĠMay": 2061,
      "Ġseguridad": 2062,
      "Ġ*": 2063,
      "Ġdetal": 2064,
      "Ġmol": 2065,
      "Ġampl": 2066,
      "olÃ³g": 2067,
      "Ġvalor": 2068,
      "Ġjuego": 2069,
      "Ġcentro": 2070,
      "encias": 2071,
      "nacional": 2072,
      "03": 2073,
      "ale": 2074,
      "Ġhaber": 2075,
      "ick": 2076,
      "Ġblan": 2077,
      "cter": 2078,
      "mon": 2079,
      "Ġofre": 2080,
      "ĠTran": 2081,
      "Ġpunto": 2082,
      "Ġquer": 2083,
      "Ġrec": 2084,
      "Ġtecn": 2085,
      "Ġall": 2086,
      "Ġpareja": 2087,
      "ulo": 2088,
      "Ġmus": 2089,
      "uerto": 2090,
      "Ġproyecto": 2091,
      "ines": 2092,
      "Ġestaba": 2093,
      "ĠAdemÃ¡s": 2094,
      "Ġdinero": 2095,
      "dar": 2096,
      "tino": 2097,
      "tios": 2098,
      "ĠpÃ¡g": 2099,
      "ĠServ": 2100,
      "ersiÃ³n": 2101,
      "ĠAb": 2102,
      "05": 2103,
      "Ġello": 2104,
      "Ġllev": 2105,
      "ram": 2106,
      "07": 2107,
      "pecto": 2108,
      "Ġmuer": 2109,
      "ced": 2110,
      "Ġacuerdo": 2111,
      "Ġ2011": 2112,
      "Ġtengo": 2113,
      "ĠprÃ³xim": 2114,
      "gl": 2115,
      "Ġaum": 2116,
      "iciembre": 2117,
      "ĠAle": 2118,
      "Ġexperiencia": 2119,
      "anto": 2120,
      "pera": 2121,
      "Ġmens": 2122,
      "ĠPublicado": 2123,
      "Ġcaus": 2124,
      "04": 2125,
      "ĠeconÃ³m": 2126,
      "Ġfac": 2127,
      "Ġsaber": 2128,
      "ĠlÃŃnea": 2129,
      "Ġcambi": 2130,
      "tubre": 2131,
      "ÃŃtu": 2132,
      "Ġluego": 2133,
      "bido": 2134,
      "Ġcondi": 2135,
      "Ġfree": 2136,
      "Ġcerca": 2137,
      "Ġdisfru": 2138,
      "Ġdesn": 2139,
      "Ġescri": 2140,
      "ix": 2141,
      "villa": 2142,
      "alo": 2143,
      "ĠEstado": 2144,
      "gentina": 2145,
      "Ġcolor": 2146,
      "dida": 2147,
      "AT": 2148,
      "Ġpalab": 2149,
      "ith": 2150,
      "tillas": 2151,
      "ĠAnd": 2152,
      "ĠDirec": 2153,
      "reo": 2154,
      "ĠFor": 2155,
      "08": 2156,
      "ign": 2157,
      "Ġfueron": 2158,
      "UL": 2159,
      "Ġesti": 2160,
      "ticia": 2161,
      "Ġpeliculas": 2162,
      "45": 2163,
      "Ġgen": 2164,
      "ental": 2165,
      "Ġorden": 2166,
      "Ã©f": 2167,
      "Ġparticip": 2168,
      "Ġaseg": 2169,
      "ĠnÃºmero": 2170,
      "ĠPue": 2171,
      "Ġreal": 2172,
      "Ġapren": 2173,
      "Con": 2174,
      "izaciÃ³n": 2175,
      "Ġnombre": 2176,
      "Ġrecur": 2177,
      "ĠLes": 2178,
      "Ġalim": 2179,
      "edades": 2180,
      "orte": 2181,
      "ĠSh": 2182,
      "Ġnatural": 2183,
      "Ġpm": 2184,
      "Ġemple": 2185,
      "genes": 2186,
      "tual": 2187,
      "viembre": 2188,
      "ĠVen": 2189,
      "Ġlado": 2190,
      "Ġanal": 2191,
      "Ġho": 2192,
      "Ġcasi": 2193,
      "Ġatr": 2194,
      "ĠGar": 2195,
      "Ġpuedes": 2196,
      "Ġmos": 2197,
      "Ġnosotros": 2198,
      "Ġrespons": 2199,
      "Ġhora": 2200,
      "Ġcambio": 2201,
      "uch": 2202,
      "Ġcris": 2203,
      "ĠrelaciÃ³n": 2204,
      "ducaciÃ³n": 2205,
      "Ġcir": 2206,
      "ĠPas": 2207,
      "09": 2208,
      "Ġelectr": 2209,
      "ptiembre": 2210,
      "Ġfamilia": 2211,
      "Ġur": 2212,
      "alizaciÃ³n": 2213,
      "eron": 2214,
      "Ġsignif": 2215,
      "ĠCi": 2216,
      "pend": 2217,
      "ĠIs": 2218,
      "izo": 2219,
      "Ġrecib": 2220,
      "Ġadmin": 2221,
      "tina": 2222,
      "ting": 2223,
      "Ã¡mara": 2224,
      "EM": 2225,
      "tonces": 2226,
      "zos": 2227,
      "06": 2228,
      "Ġprograma": 2229,
      "omos": 2230,
      "Ġdocum": 2231,
      "................": 2232,
      "IO": 2233,
      "____": 2234,
      "Ġofer": 2235,
      "iza": 2236,
      "Ġpad": 2237,
      "Ġil": 2238,
      "Ġcumpl": 2239,
      "Ġtendr": 2240,
      "ella": 2241,
      "Ġ29": 2242,
      "Ġped": 2243,
      "35": 2244,
      "Ġsa": 2245,
      "Ġsitio": 2246,
      "Ġpriv": 2247,
      "irm": 2248,
      "ĠBan": 2249,
      "fil": 2250,
      "ĠTer": 2251,
      "illas": 2252,
      "Ġdistin": 2253,
      "ĠPos": 2254,
      "ĠUN": 2255,
      "ĠGener": 2256,
      "quis": 2257,
      "Ġmercado": 2258,
      "siÃ³n": 2259,
      "aca": 2260,
      "ebrero": 2261,
      "zado": 2262,
      "Ã³vil": 2263,
      "ini": 2264,
      "unidad": 2265,
      "ĠlÃŃ": 2266,
      "Ġmateri": 2267,
      "enas": 2268,
      "II": 2269,
      "ĠMil": 2270,
      "ps": 2271,
      "Ġcontactos": 2272,
      "Ġtema": 2273,
      "ciÃ³": 2274,
      "ema": 2275,
      "tero": 2276,
      "Ġimagen": 2277,
      "Ġespeci": 2278,
      "Ġexpres": 2279,
      "tique": 2280,
      "Ġgol": 2281,
      "Ġjus": 2282,
      "ĠSer": 2283,
      "gaciÃ³n": 2284,
      "tia": 2285,
      "Ġpod": 2286,
      "Ġlec": 2287,
      "men": 2288,
      "wn": 2289,
      "dan": 2290,
      "QuÃ©": 2291,
      "ĠrÃ¡p": 2292,
      "Ġ2010": 2293,
      "si": 2294,
      "Ġ40": 2295,
      "Ġrealizar": 2296,
      "Ġparece": 2297,
      "ĠBol": 2298,
      "tantes": 2299,
      "ĠEscor": 2300,
      "37": 2301,
      "ĠTambiÃ©n": 2302,
      "ĠâĢĺ": 2303,
      "ðŁ": 2304,
      "ĠRa": 2305,
      "her": 2306,
      "Ġtenemos": 2307,
      "38": 2308,
      "Ġcompe": 2309,
      "ĠSec": 2310,
      "posiciÃ³n": 2311,
      "Ġliber": 2312,
      "Ġpresidente": 2313,
      "Ġincluy": 2314,
      "ame": 2315,
      "Ġby": 2316,
      "ecer": 2317,
      "Ġclar": 2318,
      "ĠHer": 2319,
      "Ġub": 2320,
      "Ġproblemas": 2321,
      "Ġfuera": 2322,
      "ferencia": 2323,
      "ĠPal": 2324,
      "Ã¡b": 2325,
      "acciÃ³n": 2326,
      "Ġalta": 2327,
      "Ġnunca": 2328,
      "ĠJun": 2329,
      "ĠJosÃ©": 2330,
      "Ġmayo": 2331,
      "ins": 2332,
      "Ġru": 2333,
      "Ġtrata": 2334,
      "lio": 2335,
      "Ġsiguiente": 2336,
      "Ġtermin": 2337,
      "Ġseguir": 2338,
      "icada": 2339,
      "Ġescrib": 2340,
      "IM": 2341,
      "gon": 2342,
      "Ġetc": 2343,
      "Ġsoci": 2344,
      "ĠBa": 2345,
      "Ġselec": 2346,
      "Ġbusca": 2347,
      "Ġenfer": 2348,
      "Ġproblema": 2349,
      "tando": 2350,
      "ear": 2351,
      "02": 2352,
      "ĠHa": 2353,
      "Ġsolici": 2354,
      "Ġencontr": 2355,
      "eria": 2356,
      "ĠUS": 2357,
      "LE": 2358,
      "Ġlocal": 2359,
      "Ġmarzo": 2360,
      "ĠEsto": 2361,
      "Ġnorm": 2362,
      "Ġdomin": 2363,
      "ĠPAR": 2364,
      "Ġdig": 2365,
      "49": 2366,
      "Ġconsum": 2367,
      "Ġnov": 2368,
      "Ġminutos": 2369,
      "jar": 2370,
      "gre": 2371,
      "jes": 2372,
      "oso": 2373,
      "Ġmues": 2374,
      "Ġpin": 2375,
      "ĠIm": 2376,
      "Ġli": 2377,
      "respon": 2378,
      "Ġjunio": 2379,
      "icÃ³": 2380,
      "ancia": 2381,
      "ecu": 2382,
      "dial": 2383,
      "Ġrelacion": 2384,
      "Ġenv": 2385,
      "bal": 2386,
      "oz": 2387,
      "Ġsur": 2388,
      "Ġacer": 2389,
      "ĠFe": 2390,
      "Ġverdad": 2391,
      "Ġlibro": 2392,
      "Ġenero": 2393,
      "ĠCuando": 2394,
      "Ġafec": 2395,
      "ĠmÃºs": 2396,
      "ulares": 2397,
      "Ġalcan": 2398,
      "Ġcomen": 2399,
      "??": 2400,
      "ner": 2401,
      "fe": 2402,
      "21": 2403,
      "Ġdirig": 2404,
      "ĠGobierno": 2405,
      "Ġfund": 2406,
      "Ġmadrid": 2407,
      "dades": 2408,
      "Ġgobierno": 2409,
      "ev": 2410,
      "ong": 2411,
      "Ġmano": 2412,
      "Ġnoche": 2413,
      "ork": 2414,
      "Ġlibre": 2415,
      "ĠEsp": 2416,
      "forma": 2417,
      "55": 2418,
      "termin": 2419,
      "ĠUniversidad": 2420,
      "ienda": 2421,
      "ĠSanta": 2422,
      "ike": 2423,
      "Ġcomprar": 2424,
      "gosto": 2425,
      "Ġcuatro": 2426,
      "sex": 2427,
      "ĠTen": 2428,
      "Ġinteg": 2429,
      "ĠEstados": 2430,
      "inaciÃ³n": 2431,
      "ĠHombre": 2432,
      "terio": 2433,
      "dencia": 2434,
      "blo": 2435,
      "dez": 2436,
      "Ġcuerpo": 2437,
      "Ġdiciembre": 2438,
      "Ġincluso": 2439,
      "usiÃ³n": 2440,
      "dif": 2441,
      "mateur": 2442,
      "36": 2443,
      "ĠAh": 2444,
      "Ġpartir": 2445,
      "Ġencuentra": 2446,
      "Ġvie": 2447,
      "Ġespanol": 2448,
      "Ġoport": 2449,
      "Ġencan": 2450,
      "Ġhemos": 2451,
      "istencia": 2452,
      "ĠPag": 2453,
      "tencia": 2454,
      "anza": 2455,
      "TR": 2456,
      "ĠMaduras": 2457,
      "Ġbenef": 2458,
      "ombia": 2459,
      "tral": 2460,
      "Ġunas": 2461,
      "rez": 2462,
      "ĠâĢĶ": 2463,
      "Ġponer": 2464,
      "ĠsituaciÃ³n": 2465,
      "ind": 2466,
      "Ġsac": 2467,
      "Ġjulio": 2468,
      "alizar": 2469,
      "Â¡": 2470,
      "Ġgusta": 2471,
      "partam": 2472,
      "ĠprÃ¡c": 2473,
      "Ġejer": 2474,
      "Ġdeber": 2475,
      "{\"": 2476,
      "Ġfinanci": 2477,
      "ĠvÃŃ": 2478,
      "cionar": 2479,
      "ĠSE": 2480,
      "Ġlog": 2481,
      "ĠNegro": 2482,
      "Ġfrente": 2483,
      "Ġeleg": 2484,
      "ĠNav": 2485,
      "Ġempe": 2486,
      "Ġder": 2487,
      "Ġcaracter": 2488,
      "Ġsociales": 2489,
      "ror": 2490,
      "ilar": 2491,
      "Ġproducto": 2492,
      "Ġmunicip": 2493,
      "ight": 2494,
      "ira": 2495,
      "Ġnuevos": 2496,
      "iado": 2497,
      "tario": 2498,
      "Ġextra": 2499,
      "ĠOb": 2500,
      "ila": 2501,
      "34": 2502,
      "Ġoctubre": 2503,
      "Ġpaso": 2504,
      "Ġeven": 2505,
      "ua": 2506,
      "Ġserie": 2507,
      "Ġjunto": 2508,
      "Ġactividades": 2509,
      "ices": 2510,
      "Ġalgunas": 2511,
      "Ġtempor": 2512,
      "Ġtran": 2513,
      "Ġabril": 2514,
      "Ġvan": 2515,
      "Ġalguna": 2516,
      "venes": 2517,
      "ink": 2518,
      "table": 2519,
      "icamente": 2520,
      "39": 2521,
      "Ġcomentarios": 2522,
      "Ġnacional": 2523,
      "ĠaÃºn": 2524,
      "Ġconseg": 2525,
      "Ãģ": 2526,
      "trol": 2527,
      "Ġproces": 2528,
      "zul": 2529,
      "vista": 2530,
      "ĠAir": 2531,
      "gado": 2532,
      "Ġvir": 2533,
      "Com": 2534,
      "Ġ@": 2535,
      "Ġseptiembre": 2536,
      "Ġpartido": 2537,
      "Ġcalle": 2538,
      "Ġdivers": 2539,
      "Ġamigos": 2540,
      "ical": 2541,
      "Â¿": 2542,
      "âĤ¬": 2543,
      "ĠPan": 2544,
      "Ġbeb": 2545,
      "ĠAL": 2546,
      "ĠUnidos": 2547,
      "ee": 2548,
      "Ġunivers": 2549,
      "Ġgaran": 2550,
      "Ġfalta": 2551,
      "ĠPorn": 2552,
      "adio": 2553,
      "Ġsector": 2554,
      "IEN": 2555,
      "Ġbaj": 2556,
      "ebook": 2557,
      "Ġpresent": 2558,
      "isis": 2559,
      "Ġvarios": 2560,
      "Ġlargo": 2561,
      "Ã¼": 2562,
      "Ġprue": 2563,
      "ĠAy": 2564,
      "Ã³d": 2565,
      "ĠFac": 2566,
      "Ġinde": 2567,
      "ĠGo": 2568,
      "ĠpÃºblico": 2569,
      "ĠTi": 2570,
      "ĠÃºltimo": 2571,
      "esa": 2572,
      "Ġbase": 2573,
      "ĠBl": 2574,
      "ĠMer": 2575,
      "ducir": 2576,
      "Ġnav": 2577,
      "abilidad": 2578,
      "Ġofrec": 2579,
      "adoras": 2580,
      "ĠSa": 2581,
      "78": 2582,
      "Ġnoviembre": 2583,
      "Ġero": 2584,
      "trucciÃ³n": 2585,
      "Ġocas": 2586,
      "Ġindustr": 2587,
      "Ġenerg": 2588,
      "ĠDEL": 2589,
      "Ġfon": 2590,
      "Ġcitas": 2591,
      "Ġobl": 2592,
      "omÃŃa": 2593,
      "Al": 2594,
      "imon": 2595,
      "Ã¡r": 2596,
      "Ġresultados": 2597,
      "ĠfÃ¡cil": 2598,
      "ly": 2599,
      "2017": 2600,
      "Ġfe": 2601,
      ".,": 2602,
      "Ġposi": 2603,
      "Ġconsul": 2604,
      "Ġanterior": 2605,
      "ĠInd": 2606,
      "ĠartÃŃculo": 2607,
      "mac": 2608,
      "ĠHab": 2609,
      "raciÃ³n": 2610,
      "LA": 2611,
      "ĠPrim": 2612,
      "Ġeuros": 2613,
      "ok": 2614,
      "ĠAsÃŃ": 2615,
      "Ġpuntos": 2616,
      "gue": 2617,
      "onos": 2618,
      "ase": 2619,
      "ruz": 2620,
      "Ġestoy": 2621,
      "ĠDios": 2622,
      "Ġq": 2623,
      "igu": 2624,
      "Ġpodemos": 2625,
      "ĠatenciÃ³n": 2626,
      "ds": 2627,
      "Ġbuscar": 2628,
      "Ġreun": 2629,
      "ĠPareja": 2630,
      "Ġfebrero": 2631,
      "ĠpodrÃŃa": 2632,
      "ient": 2633,
      "Ġfel": 2634,
      "ches": 2635,
      "Ġiden": 2636,
      "Ġdecl": 2637,
      "rac": 2638,
      "Ġrealidad": 2639,
      "Ġgrande": 2640,
      "icante": 2641,
      "Ġpasar": 2642,
      "Ġtex": 2643,
      "bil": 2644,
      "indo": 2645,
      "ĠDesde": 2646,
      "Ġnuevas": 2647,
      "Ġayuda": 2648,
      "icados": 2649,
      "ĠCer": 2650,
      "terna": 2651,
      "Ġmov": 2652,
      "Ã©fono": 2653,
      "ket": 2654,
      "Ġtomar": 2655,
      "udos": 2656,
      "Ġbusc": 2657,
      "ĠEro": 2658,
      "Ġpromo": 2659,
      "diÃ³": 2660,
      "ĠRed": 2661,
      "DO": 2662,
      "ĠPlan": 2663,
      "Ġobjetivo": 2664,
      "tÃŃn": 2665,
      "Ġbueno": 2666,
      "izar": 2667,
      "ĠpolÃŃtica": 2668,
      "ish": 2669,
      "Ġmul": 2670,
      "Ġcasos": 2671,
      "ĠGeneral": 2672,
      "ka": 2673,
      "greso": 2674,
      "ĠRela": 2675,
      "Ġ199": 2676,
      "Ġries": 2677,
      "LO": 2678,
      "tiz": 2679,
      "ĠopiniÃ³n": 2680,
      "Ġgr": 2681,
      "ĠFree": 2682,
      "Ġalg": 2683,
      "AB": 2684,
      "Ġcreo": 2685,
      "Ġenferm": 2686,
      "puestas": 2687,
      "ĠÃ©s": 2688,
      "Ã©di": 2689,
      "teros": 2690,
      "emor": 2691,
      "ÃŃtulo": 2692,
      "ĠSuper": 2693,
      "tien": 2694,
      "Ġbara": 2695,
      "Ġsegunda": 2696,
      "48": 2697,
      "ped": 2698,
      "ciden": 2699,
      "Ġll": 2700,
      "Ãĳ": 2701,
      "Ġviol": 2702,
      "Ġinstitu": 2703,
      "Ġcorrespon": 2704,
      "Ġdejar": 2705,
      "Ġespacio": 2706,
      "Ġsiendo": 2707,
      "Ã©rica": 2708,
      "Ġperio": 2709,
      "Ġvac": 2710,
      "Ġactividad": 2711,
      "ĠYa": 2712,
      "jus": 2713,
      "esta": 2714,
      "Ã±ana": 2715,
      "Ġusted": 2716,
      "Ġnegro": 2717,
      "Ã³nico": 2718,
      "Ġsegundo": 2719,
      "lex": 2720,
      "ĠCris": 2721,
      "ĠOnline": 2722,
      "dico": 2723,
      "cionado": 2724,
      "Ġentonces": 2725,
      "ÃŃsticas": 2726,
      "Ġderecho": 2727,
      "turo": 2728,
      "Ġpop": 2729,
      "ĠSon": 2730,
      "abe": 2731,
      "guien": 2732,
      "Ġelem": 2733,
      "Ġlan": 2734,
      "af": 2735,
      "get": 2736,
      "Ġrom": 2737,
      "ificaciÃ³n": 2738,
      "Ġacom": 2739,
      "ĠpaÃŃses": 2740,
      "ĠArgentina": 2741,
      "visiÃ³n": 2742,
      "Ġdetermin": 2743,
      "Ġayudar": 2744,
      "Ġgratu": 2745,
      "Ġprincipal": 2746,
      "ĠLuis": 2747,
      "ĠCos": 2748,
      "ega": 2749,
      "Ġmodelo": 2750,
      "tiene": 2751,
      "Ġpuer": 2752,
      "Ġsos": 2753,
      "Ġpermite": 2754,
      "Ġpapel": 2755,
      "Ġresta": 2756,
      "Ġblog": 2757,
      "ĠRE": 2758,
      "Ġlabor": 2759,
      "46": 2760,
      "Ã³l": 2761,
      "ĠHay": 2762,
      "ĠGal": 2763,
      "47": 2764,
      "Ġchica": 2765,
      "Ġsens": 2766,
      "tm": 2767,
      "Ġmediante": 2768,
      "Ġreserv": 2769,
      "Ġprimero": 2770,
      "ess": 2771,
      "tex": 2772,
      "Ġalum": 2773,
      "Ġtienes": 2774,
      "vesti": 2775,
      "ĠseÃ±al": 2776,
      "ĠGracias": 2777,
      "Ġhizo": 2778,
      "ICI": 2779,
      "Ġcantidad": 2780,
      "Ġllevar": 2781,
      "!!!": 2782,
      "Ġobra": 2783,
      "Ġcarr": 2784,
      "Ġimpres": 2785,
      "Ġjoven": 2786,
      "Ġconj": 2787,
      "Ġdia": 2788,
      "Ġavan": 2789,
      "Ġmir": 2790,
      "rag": 2791,
      "ĠCiudad": 2792,
      "Ġsentido": 2793,
      "ĠWebcam": 2794,
      "Ġyou": 2795,
      "ĠReal": 2796,
      "Ġocur": 2797,
      "istra": 2798,
      "trimon": 2799,
      "Ġhoteles": 2800,
      "ĠCasa": 2801,
      "Ġ%": 2802,
      "Ġcorr": 2803,
      "ari": 2804,
      "Ġded": 2805,
      "ĠTh": 2806,
      "Ġagosto": 2807,
      "Ġdistr": 2808,
      "ĠHombres": 2809,
      "Ġconven": 2810,
      "TER": 2811,
      "Ġestra": 2812,
      "http": 2813,
      "Ġofrece": 2814,
      "lec": 2815,
      "Ġfabr": 2816,
      "CH": 2817,
      "tÃ³n": 2818,
      "ultos": 2819,
      "ult": 2820,
      "Ġsimple": 2821,
      "pia": 2822,
      "Ġenvi": 2823,
      "ramien": 2824,
      "use": 2825,
      "Ġceleb": 2826,
      "ĠmayorÃŃa": 2827,
      "cÃŃa": 2828,
      "vitar": 2829,
      "Ġdom": 2830,
      "bios": 2831,
      "Ġsor": 2832,
      "ĠdiseÃ±o": 2833,
      "tbol": 2834,
      "Ġasegur": 2835,
      "tiÃ³": 2836,
      "pin": 2837,
      "Ġcondiciones": 2838,
      "ĠMarÃŃa": 2839,
      "Ã©ctr": 2840,
      "Ġabs": 2841,
      "IG": 2842,
      "icidad": 2843,
      "grafÃŃa": 2844,
      "ĠCitas": 2845,
      "ĠMal": 2846,
      "Ġcuar": 2847,
      "Ġclientes": 2848,
      "echos": 2849,
      "ĠCentro": 2850,
      "ĠNO": 2851,
      "ĠLey": 2852,
      "ĠAmor": 2853,
      "ĠBlan": 2854,
      "ivos": 2855,
      "Ġmag": 2856,
      "Ġcla": 2857,
      "Ġinici": 2858,
      "ĠpÃ¡gina": 2859,
      "ĠCOM": 2860,
      "59": 2861,
      "Ġpaci": 2862,
      "Ġcuanto": 2863,
      "ĠBen": 2864,
      "ĠEntre": 2865,
      "itan": 2866,
      "Ġcontacto": 2867,
      "57": 2868,
      "Ġfran": 2869,
      "Ġsoy": 2870,
      "eso": 2871,
      "ĠPers": 2872,
      "Ġincre": 2873,
      "ĠNi": 2874,
      "itaciÃ³n": 2875,
      "zÃ³": 2876,
      "duca": 2877,
      "emen": 2878,
      "Ġquiere": 2879,
      "AP": 2880,
      "ĠInform": 2881,
      "arias": 2882,
      "Ġestudio": 2883,
      "age": 2884,
      "ĠDesn": 2885,
      "Ġpersonales": 2886,
      "ĠAM": 2887,
      "Ġestamos": 2888,
      "Ġpartic": 2889,
      "itor": 2890,
      "Ġ2009": 2891,
      "Ġderechos": 2892,
      "dero": 2893,
      "turales": 2894,
      "Ġvari": 2895,
      "Ġ<": 2896,
      "Ġcapital": 2897,
      "culo": 2898,
      "uencia": 2899,
      "ĠChica": 2900,
      "IV": 2901,
      "Ġemb": 2902,
      "ĠCarlos": 2903,
      "Ġentrada": 2904,
      "mer": 2905,
      "Ġdepor": 2906,
      "chas": 2907,
      "Ġbal": 2908,
      "Ġtarde": 2909,
      "Ġmodo": 2910,
      "Ġsociedad": 2911,
      "Ġalto": 2912,
      "Ġrespecto": 2913,
      "Ġmarca": 2914,
      "iÃ©n": 2915,
      "Ġprob": 2916,
      "Ġidea": 2917,
      "56": 2918,
      "Ã³venes": 2919,
      "Ġaire": 2920,
      "Ã©is": 2921,
      "oro": 2922,
      "uno": 2923,
      "Ġcolec": 2924,
      "ĠFern": 2925,
      "ĠFin": 2926,
      "ĠPed": 2927,
      "Ġtur": 2928,
      "osp": 2929,
      "wit": 2930,
      "ĠalgÃºn": 2931,
      "ĠInternet": 2932,
      "Ġtetas": 2933,
      "ducciÃ³n": 2934,
      "tecciÃ³n": 2935,
      "Ġpis": 2936,
      "ĠJa": 2937,
      "ĠOl": 2938,
      "ĠCre": 2939,
      "dolescente": 2940,
      "ĠmÃ¡xim": 2941,
      "Ġacceso": 2942,
      "Ġluz": 2943,
      "tividad": 2944,
      "Ã©l": 2945,
      "torias": 2946,
      "Ġvel": 2947,
      "itado": 2948,
      "Ġvista": 2949,
      "pol": 2950,
      "unes": 2951,
      "icha": 2952,
      "ant": 2953,
      "><": 2954,
      "58": 2955,
      "yl": 2956,
      "ĠDo": 2957,
      "Ġ2020": 2958,
      "IR": 2959,
      "ional": 2960,
      "iano": 2961,
      "Ġclaro": 2962,
      "Ġedad": 2963,
      "ivil": 2964,
      "ĠPin": 2965,
      "ĠpelÃŃcula": 2966,
      "Ġhacen": 2967,
      "Ġfacil": 2968,
      "rases": 2969,
      "Ġnecesario": 2970,
      "tora": 2971,
      "Ġconver": 2972,
      "Ġenten": 2973,
      "Ġcomb": 2974,
      "Ġpuesto": 2975,
      "ĠCul": 2976,
      "Ġgor": 2977,
      "Ġviaje": 2978,
      "Ġesos": 2979,
      "Ġfecha": 2980,
      "ivid": 2981,
      "Ġofici": 2982,
      "Ġdeben": 2983,
      "ĠBe": 2984,
      "Ġ31": 2985,
      "fica": 2986,
      "ĠAg": 2987,
      "Ġbastante": 2988,
      "Ġ00": 2989,
      "ĠJuegos": 2990,
      "Ġ01": 2991,
      "ĠBr": 2992,
      "Ġquienes": 2993,
      "Ġev": 2994,
      "ond": 2995,
      "Ġseguro": 2996,
      "Ġhaya": 2997,
      "ET": 2998,
      "31": 2999,
      "ĠTri": 3000,
      "ĠZapatos": 3001,
      "ĠEsc": 3002,
      "Ġfi": 3003,
      "Ġmoder": 3004,
      "ENT": 3005,
      "ĠDa": 3006,
      "Ġpantal": 3007,
      "Ġacep": 3008,
      "uls": 3009,
      "Ġprovin": 3010,
      "ICA": 3011,
      "ĠCap": 3012,
      "Ġpropor": 3013,
      "Ġusuarios": 3014,
      "ĠmaÃ±ana": 3015,
      "ware": 3016,
      "Ġloc": 3017,
      "Ġhaciendo": 3018,
      "dap": 3019,
      "quiler": 3020,
      "Ġpuedo": 3021,
      "ĠQUE": 3022,
      "Ġlen": 3023,
      "Ġmiemb": 3024,
      "ĠmÃºsica": 3025,
      "king": 3026,
      "96": 3027,
      "adamente": 3028,
      "Ġwith": 3029,
      "Ġprestamos": 3030,
      "Ġdicho": 3031,
      "ADO": 3032,
      "ĠHola": 3033,
      "adie": 3034,
      "ĠtenÃŃa": 3035,
      "dal": 3036,
      "peraciÃ³n": 3037,
      "Ġcapacidad": 3038,
      "ĠHis": 3039,
      "edor": 3040,
      "CO": 3041,
      "fico": 3042,
      "quina": 3043,
      "Ġopera": 3044,
      "acto": 3045,
      "Ġpartici": 3046,
      "edra": 3047,
      "Ġpiel": 3048,
      "ĠMejor": 3049,
      "ĠUs": 3050,
      "erra": 3051,
      "Ġdescargar": 3052,
      "ife": 3053,
      "todo": 3054,
      "Ġpresente": 3055,
      "ime": 3056,
      "vÃŃa": 3057,
      "Ġcri": 3058,
      "uncio": 3059,
      "ĠDec": 3060,
      "Ġestilo": 3061,
      "Ġemo": 3062,
      "oj": 3063,
      "rup": 3064,
      "Ġmedios": 3065,
      "ĠfÃŃs": 3066,
      "**": 3067,
      "Ãī": 3068,
      "ĠacompaÃ±": 3069,
      "Ġmovil": 3070,
      "iernes": 3071,
      "Ġveh": 3072,
      "ĠaplicaciÃ³n": 3073,
      "ĠHe": 3074,
      "Ã¡lisis": 3075,
      "puestos": 3076,
      "Ġexcel": 3077,
      "ĠEspanol": 3078,
      "iminar": 3079,
      "ĠPros": 3080,
      "igura": 3081,
      "Ġactual": 3082,
      "tÃ©": 3083,
      "ĠproducciÃ³n": 3084,
      "Ġcinco": 3085,
      "Ġtratamiento": 3086,
      "Ġejerci": 3087,
      "erÃŃo": 3088,
      "Ġplata": 3089,
      "Ġabier": 3090,
      "Ġalguien": 3091,
      "Ġbon": 3092,
      "taciones": 3093,
      "Ġacab": 3094,
      "Ġpalabras": 3095,
      "Ġpron": 3096,
      "ĠDescar": 3097,
      "ĠPRO": 3098,
      "tiles": 3099,
      "glÃ©s": 3100,
      "Ġlig": 3101,
      "Ġmanten": 3102,
      "Ġagu": 3103,
      "ogle": 3104,
      "ĠColombia": 3105,
      "Ġbarcelona": 3106,
      "Ġhablar": 3107,
      "Ġpueblo": 3108,
      "tarÃŃa": 3109,
      "Ġza": 3110,
      "Ġ2008": 3111,
      "iesta": 3112,
      "ĠPR": 3113,
      "ĠMos": 3114,
      "tube": 3115,
      "dedor": 3116,
      "Ġquiero": 3117,
      "partamento": 3118,
      "Ġparejas": 3119,
      "2016": 3120,
      "ĠÃºltimos": 3121,
      "Ġdetalles": 3122,
      "ello": 3123,
      "unda": 3124,
      "Ġlista": 3125,
      "ilidades": 3126,
      "Ġusar": 3127,
      "Ġhas": 3128,
      "Ġsignifica": 3129,
      "Ġdorm": 3130,
      "ĠmÃ³vil": 3131,
      "Ġrecursos": 3132,
      "Ġvarias": 3133,
      "ats": 3134,
      "Res": 3135,
      "Ġsecre": 3136,
      "vers": 3137,
      "Ġcosa": 3138,
      "vie": 3139,
      "aya": 3140,
      "ĠÃºltima": 3141,
      "ĠAp": 3142,
      "Ġevitar": 3143,
      "gles": 3144,
      "Ãºblica": 3145,
      "rido": 3146,
      "uelo": 3147,
      "DE": 3148,
      "Ã±ad": 3149,
      "Ġpare": 3150,
      "aco": 3151,
      "Ġases": 3152,
      "ss": 3153,
      "li": 3154,
      "Ġnuestras": 3155,
      "Ġdisposi": 3156,
      "taron": 3157,
      "Ġprepar": 3158,
      "Ġcierto": 3159,
      "Ġconstitu": 3160,
      "Ġja": 3161,
      "alizado": 3162,
      "ĠSus": 3163,
      "Ã¡tico": 3164,
      "ilo": 3165,
      "istemas": 3166,
      "Ġmedia": 3167,
      "Ġprofesionales": 3168,
      "clus": 3169,
      "ĠAhora": 3170,
      "Ġrecu": 3171,
      "iencias": 3172,
      "ĠCur": 3173,
      "Por": 3174,
      "ACION": 3175,
      "ican": 3176,
      "Ġimpl": 3177,
      "tilla": 3178,
      "ĠTodo": 3179,
      "Ġmadre": 3180,
      "Ġconcep": 3181,
      "au": 3182,
      "Ġcompra": 3183,
      "Ġpropio": 3184,
      "ĠInstitu": 3185,
      "teras": 3186,
      "Ġreco": 3187,
      "Ġtom": 3188,
      "ezuela": 3189,
      "aller": 3190,
      "Ġpueda": 3191,
      "Ġinterior": 3192,
      "mientos": 3193,
      "Ġperman": 3194,
      "ĠZapatillas": 3195,
      "Ã¡ndo": 3196,
      "QU": 3197,
      "ĠTrans": 3198,
      "tÃ³r": 3199,
      "Ã¡ndose": 3200,
      "Ġadecu": 3201,
      "int": 3202,
      "88": 3203,
      "amientos": 3204,
      "Ġobserv": 3205,
      "pir": 3206,
      "Ã³nica": 3207,
      "Ġmanif": 3208,
      "Ġarch": 3209,
      "Ġprofesional": 3210,
      "pone": 3211,
      "Ġcrear": 3212,
      "ĠRos": 3213,
      "Ġconseguir": 3214,
      "valu": 3215,
      "Ġocu": 3216,
      "org": 3217,
      "uido": 3218,
      "Ġfir": 3219,
      "iguel": 3220,
      "Ġmodif": 3221,
      "Ġherramien": 3222,
      "cripciÃ³n": 3223,
      "ĠPARA": 3224,
      "32": 3225,
      "Ġnum": 3226,
      "jeros": 3227,
      "ĠVivo": 3228,
      "Ġrespuesta": 3229,
      "Ġcocina": 3230,
      "Ġfuturo": 3231,
      "Ġhub": 3232,
      "Ġdescub": 3233,
      "ood": 3234,
      "66": 3235,
      "Ġindivid": 3236,
      "Ġsigue": 3237,
      "ĠVol": 3238,
      "ĠmÃŃ": 3239,
      "ÃŃamos": 3240,
      "wing": 3241,
      "teria": 3242,
      "ance": 3243,
      "umen": 3244,
      "Ġhabl": 3245,
      "2018": 3246,
      "ĠCr": 3247,
      "cular": 3248,
      "ĠCaserÃŃo": 3249,
      "zon": 3250,
      "ĠAN": 3251,
      "amor": 3252,
      "ĠOs": 3253,
      "sic": 3254,
      "Ġmantener": 3255,
      "ĠOc": 3256,
      "Ġcamino": 3257,
      "ĠRu": 3258,
      "iro": 3259,
      "elle": 3260,
      "ĠâĨ": 3261,
      "bla": 3262,
      "vestis": 3263,
      "Ãºsque": 3264,
      "Ġses": 3265,
      "Ġvolver": 3266,
      "ĠVenta": 3267,
      "Ġsir": 3268,
      "ĠÃºnico": 3269,
      "Ġpobl": 3270,
      "Ġconse": 3271,
      "uentes": 3272,
      "ĠinterÃ©s": 3273,
      "ags": 3274,
      "Ġagr": 3275,
      "Ġencar": 3276,
      "Ġconci": 3277,
      "Ġleer": 3278,
      "ĠinvestigaciÃ³n": 3279,
      "imientos": 3280,
      "ĠAC": 3281,
      "Ġreconoci": 3282,
      "Ġgal": 3283,
      "Ġobtener": 3284,
      "ĠFoto": 3285,
      "Ġredes": 3286,
      "ĠSevilla": 3287,
      "Los": 3288,
      "Ġpropi": 3289,
      "Ġwebcam": 3290,
      "ianza": 3291,
      "Ġcategor": 3292,
      "Ġdisfrutar": 3293,
      "Ġrecomend": 3294,
      "ĠNueva": 3295,
      "Ġconstr": 3296,
      "Ġwww": 3297,
      "istraciÃ³n": 3298,
      "Ġpasa": 3299,
      "2019": 3300,
      "Ġtritur": 3301,
      "ellas": 3302,
      "ĠParejas": 3303,
      "how": 3304,
      "Ġoriginal": 3305,
      "Ġintel": 3306,
      "ĠjÃ³venes": 3307,
      "MA": 3308,
      "ĠConse": 3309,
      "Ġenf": 3310,
      "omas": 3311,
      "Ġresultado": 3312,
      "IP": 3313,
      "Ġfundam": 3314,
      "Ġsitios": 3315,
      "ĠAnton": 3316,
      "Ġapoyo": 3317,
      "ÃŃm": 3318,
      "we": 3319,
      "Ġmam": 3320,
      "ĠActu": 3321,
      "tiago": 3322,
      "ĠMus": 3323,
      "Ġvisto": 3324,
      "ĠTur": 3325,
      "uerra": 3326,
      "Ġvig": 3327,
      "Ġdebido": 3328,
      "ĠHo": 3329,
      "idar": 3330,
      "Ġhabitaciones": 3331,
      "Ġcorrec": 3332,
      "ĠningÃºn": 3333,
      "fes": 3334,
      "ĠVie": 3335,
      "Ġtemporada": 3336,
      "ĠMartÃŃn": 3337,
      "Ġcuad": 3338,
      "ĠEuropa": 3339,
      "Ġmedida": 3340,
      "entan": 3341,
      "ĠSoci": 3342,
      "red": 3343,
      "Ġresol": 3344,
      "venciÃ³n": 3345,
      "ĠdirecciÃ³n": 3346,
      "Ġpresenta": 3347,
      "Ġprincipales": 3348,
      "Ġ}": 3349,
      "Ġsencil": 3350,
      "Ġpropia": 3351,
      "Ġcompleto": 3352,
      "torial": 3353,
      "tivamente": 3354,
      "Ġasi": 3355,
      "77": 3356,
      "enci": 3357,
      "Ġduda": 3358,
      "Ġhijos": 3359,
      "bs": 3360,
      "Ġpost": 3361,
      "Ġ60": 3362,
      "ponder": 3363,
      "null": 3364,
      "ĠVis": 3365,
      "ĠdifÃŃ": 3366,
      "Ġmuestra": 3367,
      "aa": 3368,
      "Ġcampo": 3369,
      "Ġcabo": 3370,
      "54": 3371,
      "ey": 3372,
      "Ġellas": 3373,
      "ĠSocial": 3374,
      "Ġesf": 3375,
      "Ġcm": 3376,
      "Ġblanco": 3377,
      "Ġpeso": 3378,
      "este": 3379,
      "Ġolv": 3380,
      "Ġequipos": 3381,
      "inta": 3382,
      "Ġoblig": 3383,
      "Ġinternet": 3384,
      "ficiente": 3385,
      "manas": 3386,
      "OO": 3387,
      "arago": 3388,
      "CION": 3389,
      "ĠtÃ©r": 3390,
      "Ġpesar": 3391,
      "ĠDer": 3392,
      "Ġfuerte": 3393,
      "Ġestruc": 3394,
      "Ġdemas": 3395,
      "ese": 3396,
      "ĠPl": 3397,
      "ĠautomÃ¡": 3398,
      "ĠEmpres": 3399,
      "ĠAnuncios": 3400,
      "dica": 3401,
      "ĠHoy": 3402,
      "ĠEstu": 3403,
      "ĠdemÃ¡s": 3404,
      "iver": 3405,
      "Ġadap": 3406,
      "ĠCÃ¡mara": 3407,
      "Ġfis": 3408,
      "Ġentren": 3409,
      "Ġriesgo": 3410,
      "Ġidentif": 3411,
      "ecen": 3412,
      "Ġhttps": 3413,
      "Ġmejorar": 3414,
      "Ġcuales": 3415,
      "ker": 3416,
      "ĠDen": 3417,
      "dios": 3418,
      "imen": 3419,
      "ĠTrab": 3420,
      "Ġib": 3421,
      "An": 3422,
      "irse": 3423,
      "Se": 3424,
      "terÃŃa": 3425,
      "ĠAR": 3426,
      "To": 3427,
      "Ġzapa": 3428,
      "Ġadel": 3429,
      "ĠTravestis": 3430,
      "Ġvas": 3431,
      "ĠcomunicaciÃ³n": 3432,
      "Ġdese": 3433,
      "ĠInicio": 3434,
      "Ġproyectos": 3435,
      "ĠAnal": 3436,
      "deo": 3437,
      "43": 3438,
      "aragoza": 3439,
      "ÃŃtica": 3440,
      "witter": 3441,
      "ĠTa": 3442,
      "isterio": 3443,
      "lares": 3444,
      "Ġtrabajar": 3445,
      "Ġinternacional": 3446,
      "ĠNoticias": 3447,
      "ĠBusca": 3448,
      "ang": 3449,
      "ko": 3450,
      "Ġescuch": 3451,
      "leg": 3452,
      "ÃŃstica": 3453,
      "ĠEtique": 3454,
      "Ġpen": 3455,
      "Ġdefin": 3456,
      "Ġcolabor": 3457,
      "ĠÃ¡rea": 3458,
      "Ġcomunidad": 3459,
      "ating": 3460,
      "Ġ{": 3461,
      "asa": 3462,
      "ĠgestiÃ³n": 3463,
      "IDAD": 3464,
      "Ġresto": 3465,
      "Ġcine": 3466,
      "ĠPeliculas": 3467,
      "Ġdu": 3468,
      "ires": 3469,
      "Ġense": 3470,
      "Ġcub": 3471,
      "ĠserÃŃa": 3472,
      "ĠControl": 3473,
      "ĠLOS": 3474,
      "teriores": 3475,
      "Ġcomien": 3476,
      "ĠÃ©x": 3477,
      "Ãĥ": 3478,
      "Cu": 3479,
      "Ġrespe": 3480,
      "Ġ09": 3481,
      "ĠCab": 3482,
      "tales": 3483,
      "Ġcora": 3484,
      "Ġprov": 3485,
      "aces": 3486,
      "reas": 3487,
      "Ġdestac": 3488,
      "Ġbor": 3489,
      "Ġdado": 3490,
      "ĠEspe": 3491,
      "ĠFollando": 3492,
      "ĠTu": 3493,
      "Ġpreoc": 3494,
      "Ġtitu": 3495,
      "itario": 3496,
      "Ġvamos": 3497,
      "Ġgob": 3498,
      "char": 3499,
      "Ġtele": 3500,
      "Ġprom": 3501,
      "Ġnadie": 3502,
      "ĠFu": 3503,
      "Ġacciones": 3504,
      "):": 3505,
      "Ġoportunidad": 3506,
      "DA": 3507,
      "Ġvoy": 3508,
      "ospital": 3509,
      "atear": 3510,
      "Ġpornos": 3511,
      "ĠAdmin": 3512,
      "Ġutilizar": 3513,
      "ki": 3514,
      "ezas": 3515,
      "ĠDon": 3516,
      "quir": 3517,
      "Ġrecibir": 3518,
      "ĠAuto": 3519,
      "americ": 3520,
      "Ġcambiar": 3521,
      "ĠTodos": 3522,
      "Ġrefer": 3523,
      "ĠahÃŃ": 3524,
      "Ġpers": 3525,
      "ĠBal": 3526,
      "ĠacciÃ³n": 3527,
      "tarse": 3528,
      "mail": 3529,
      "ĠJes": 3530,
      "trimonio": 3531,
      "ĠformaciÃ³n": 3532,
      "Ġrelaciones": 3533,
      "ĠvehÃŃcul": 3534,
      "mm": 3535,
      "teca": 3536,
      "ĠComp": 3537,
      "Ġqueda": 3538,
      "Ġvesti": 3539,
      "Ġamateur": 3540,
      "ĠChile": 3541,
      "ĠMiguel": 3542,
      "torno": 3543,
      "Ġcargo": 3544,
      "Ġfamos": 3545,
      "tÃŃculos": 3546,
      "isa": 3547,
      "Ġpresentar": 3548,
      "ash": 3549,
      "cle": 3550,
      "Ġmanos": 3551,
      "ĠDan": 3552,
      "Hotel": 3553,
      "pieza": 3554,
      "Ġconduc": 3555,
      "ĠRom": 3556,
      "idores": 3557,
      "ticamente": 3558,
      "ĠimÃ¡": 3559,
      "arra": 3560,
      "Ġmuerte": 3561,
      "Ġpier": 3562,
      "Ġcontar": 3563,
      "42": 3564,
      "Ġbarr": 3565,
      "Ġdesnudas": 3566,
      "Ġlesbianas": 3567,
      "MP": 3568,
      "cr": 3569,
      "olid": 3570,
      "Ã¡tica": 3571,
      "Ġterc": 3572,
      "Ġviene": 3573,
      "Ġeduca": 3574,
      "Ad": 3575,
      "ĠeducaciÃ³n": 3576,
      "ĠhabitaciÃ³n": 3577,
      "Ġmaterial": 3578,
      "orme": 3579,
      "onda": 3580,
      "Ġrealmente": 3581,
      "Ġalre": 3582,
      "fal": 3583,
      "ĠprÃ³ximo": 3584,
      "dena": 3585,
      "Ġpago": 3586,
      "ĠNuevo": 3587,
      "ĠimÃ¡genes": 3588,
      "Ġtama": 3589,
      "Pro": 3590,
      "Ġjur": 3591,
      "ĠSen": 3592,
      "Ġsalir": 3593,
      "ler": 3594,
      "Ġmetros": 3595,
      "rada": 3596,
      "Ġeuro": 3597,
      "Ġlleva": 3598,
      "Ġcoche": 3599,
      "ture": 3600,
      "Ġmayores": 3601,
      "ĠcrÃ©di": 3602,
      "Ġ)": 3603,
      "ĠCub": 3604,
      "Ã³digo": 3605,
      "Ar": 3606,
      "ĠNues": 3607,
      "Ġmedidas": 3608,
      "Ġcabeza": 3609,
      "',": 3610,
      "hib": 3611,
      "Ġprem": 3612,
      "tiendo": 3613,
      "ĠenergÃŃa": 3614,
      "tagon": 3615,
      "diz": 3616,
      "iales": 3617,
      "iero": 3618,
      "gn": 3619,
      "ĠTetas": 3620,
      "onia": 3621,
      "unta": 3622,
      "Ġobras": 3623,
      "curso": 3624,
      "icro": 3625,
      "Ġesas": 3626,
      "Ġtuvo": 3627,
      "ÃŃos": 3628,
      "UC": 3629,
      "ĠbaÃ±o": 3630,
      "ĠMundo": 3631,
      "ĠEdi": 3632,
      "bien": 3633,
      "ierra": 3634,
      "ulas": 3635,
      "ĠGon": 3636,
      "Ġata": 3637,
      "ĠInf": 3638,
      "ĠTar": 3639,
      "Ġdura": 3640,
      "alla": 3641,
      "Ġhijo": 3642,
      "uelas": 3643,
      "ĠMens": 3644,
      "pez": 3645,
      "ĠProstitutas": 3646,
      "Ġjugar": 3647,
      "ĠbÃ¡s": 3648,
      "metros": 3649,
      "Ġdeman": 3650,
      "Ġingres": 3651,
      "ĠconstrucciÃ³n": 3652,
      "ams": 3653,
      "Ġincor": 3654,
      "Ġpul": 3655,
      "Ġimportantes": 3656,
      "hol": 3657,
      "enda": 3658,
      "ĠEroticos": 3659,
      "De": 3660,
      "Ġ08": 3661,
      "ĠelÃ©ctr": 3662,
      "ĠPi": 3663,
      "ĠTub": 3664,
      "doba": 3665,
      "icÃŃa": 3666,
      "Ġdio": 3667,
      "Ġconec": 3668,
      "Un": 3669,
      "ĠVi": 3670,
      "Ġanunci": 3671,
      "Ġinforma": 3672,
      "tista": 3673,
      "Ġnecesita": 3674,
      "Ġexten": 3675,
      "Ġapor": 3676,
      "Ġlibros": 3677,
      "Ġdescon": 3678,
      "ĠConocer": 3679,
      "Ġarte": 3680,
      "ĠSalud": 3681,
      "ore": 3682,
      "ingles": 3683,
      "Ġdescuen": 3684,
      "Ġenci": 3685,
      "ĠsÃ©": 3686,
      "Ġconjunto": 3687,
      "Ġid": 3688,
      "ĠGrandes": 3689,
      "Ġvivo": 3690,
      "Ġsiguientes": 3691,
      "MO": 3692,
      "ceder": 3693,
      "ĠAntonio": 3694,
      "TU": 3695,
      "Ġsean": 3696,
      "ĠVil": 3697,
      "Ġsuperior": 3698,
      "Ġgrupos": 3699,
      "Ãºsqueda": 3700,
      "ĠðŁ": 3701,
      "Ġdirector": 3702,
      "oce": 3703,
      "sen": 3704,
      "ĠmÃŃn": 3705,
      "Ġescort": 3706,
      "Ġopciones": 3707,
      "dem": 3708,
      "ĠSegÃºn": 3709,
      "ulaciÃ³n": 3710,
      "ablo": 3711,
      "arÃ¡n": 3712,
      "Ch": 3713,
      "taria": 3714,
      "Ġanuncios": 3715,
      "tidos": 3716,
      "Ġacon": 3717,
      "ĠDÃŃa": 3718,
      "ĠestÃ©": 3719,
      "bilidad": 3720,
      "Ġcarrera": 3721,
      "ĠediciÃ³n": 3722,
      "vio": 3723,
      "Ġsexual": 3724,
      "ung": 3725,
      "ĠHum": 3726,
      "Ġnecesidad": 3727,
      "tadas": 3728,
      "ave": 3729,
      "ueves": 3730,
      "guay": 3731,
      "Ġinterna": 3732,
      "Ġexig": 3733,
      "ERO": 3734,
      "Ġoficial": 3735,
      "Ġprimeros": 3736,
      "enos": 3737,
      "erto": 3738,
      "âĢĶ": 3739,
      "Ġfuerza": 3740,
      "Ġcurso": 3741,
      "ĠFrancis": 3742,
      "oras": 3743,
      "Ġcomentario": 3744,
      "Ġmucha": 3745,
      "Ã©m": 3746,
      "ĠtecnologÃŃa": 3747,
      "Ġjue": 3748,
      "uelos": 3749,
      "Ġinfl": 3750,
      "('": 3751,
      "VA": 3752,
      "Ġsolu": 3753,
      "Ġbe": 3754,
      "tions": 3755,
      "Ġcontenido": 3756,
      "illos": 3757,
      "ĠopciÃ³n": 3758,
      "PA": 3759,
      "paraciÃ³n": 3760,
      "\":{\"": 3761,
      "Ġmenor": 3762,
      "Ġenc": 3763,
      "ĠpoblaciÃ³n": 3764,
      "Ġencuentro": 3765,
      "olu": 3766,
      "xic": 3767,
      "Ġtraves": 3768,
      "SO": 3769,
      "ĠFacebook": 3770,
      "nov": 3771,
      "ĠNos": 3772,
      "poco": 3773,
      "IF": 3774,
      "ĠTras": 3775,
      "ĠcompaÃ±ÃŃa": 3776,
      "ĠPOR": 3777,
      "Ġtemas": 3778,
      "75": 3779,
      "Ġ35": 3780,
      "ĠRob": 3781,
      "69": 3782,
      "Ġplazo": 3783,
      "Ġlograr": 3784,
      "Ġtradi": 3785,
      "Ġposibilidad": 3786,
      "Ġbaja": 3787,
      "ardo": 3788,
      "tus": 3789,
      "ks": 3790,
      "ĠCO": 3791,
      "Ġbuscando": 3792,
      "voluciÃ³n": 3793,
      "Ġelementos": 3794,
      "ĠMur": 3795,
      "paÃ±ola": 3796,
      "ĠEncuen": 3797,
      "amp": 3798,
      "tida": 3799,
      "Ã¡bado": 3800,
      "grade": 3801,
      "Ġviernes": 3802,
      "ĠpequeÃ±o": 3803,
      "orge": 3804,
      "Ã±ar": 3805,
      "ciona": 3806,
      "Ġplaya": 3807,
      "Ġnegocio": 3808,
      "Ġestrateg": 3809,
      "41": 3810,
      "Ġclase": 3811,
      "ĠNike": 3812,
      "ĠRep": 3813,
      "'s": 3814,
      "Ġajus": 3815,
      "ĠServicios": 3816,
      "iere": 3817,
      "ĠtelÃ©fono": 3818,
      "Ġgays": 3819,
      "Ġexisten": 3820,
      "Ġblo": 3821,
      "ĠÐ": 3822,
      "Ġtenido": 3823,
      "hop": 3824,
      "Ġsil": 3825,
      "Ġaquellos": 3826,
      "ĠRodr": 3827,
      "Ġfrec": 3828,
      "ĠAbr": 3829,
      "Ġcandida": 3830,
      "Ġtraduc": 3831,
      "dolescentes": 3832,
      "ĠPon": 3833,
      "ole": 3834,
      "Pr": 3835,
      "Ġdesa": 3836,
      "Ġcaliente": 3837,
      "GO": 3838,
      "!!!!": 3839,
      "Ġcrea": 3840,
      "Ġusuario": 3841,
      "ry": 3842,
      "Ġconcre": 3843,
      "Ã¡ndez": 3844,
      "ĠÌ": 3845,
      "ral": 3846,
      "udio": 3847,
      "Ġcambios": 3848,
      "ĠInternacional": 3849,
      "ĠpequeÃ±a": 3850,
      "Ġcorreo": 3851,
      "lores": 3852,
      "Ġveloci": 3853,
      "Ġextre": 3854,
      "abetes": 3855,
      "ĠtÃ©rmin": 3856,
      "ĠGru": 3857,
      "ĠSur": 3858,
      "land": 3859,
      "Ġfollar": 3860,
      "ĠPaginas": 3861,
      "ĠHace": 3862,
      "pens": 3863,
      "ĠVilla": 3864,
      "omen": 3865,
      "Ġpresencia": 3866,
      "its": 3867,
      "ĠBuenos": 3868,
      "ĠdifÃŃcil": 3869,
      "ĠAunque": 3870,
      "Ġparticular": 3871,
      "ĠÃ©xito": 3872,
      "eci": 3873,
      "70": 3874,
      "Ġvivir": 3875,
      "Ġeroticos": 3876,
      "Ġinicia": 3877,
      "Ġofertas": 3878,
      "ĠBuscar": 3879,
      "Ġedif": 3880,
      "ĠversiÃ³n": 3881,
      "pendiente": 3882,
      "Ġline": 3883,
      "ACIÃĵN": 3884,
      "Ġverda": 3885,
      "Ġmensaje": 3886,
      "Ġaprov": 3887,
      "Ġplanta": 3888,
      "ĠTem": 3889,
      "Ġ2007": 3890,
      "coles": 3891,
      "Ġprincipio": 3892,
      "itantes": 3893,
      "ĠFron": 3894,
      "Ãºtbol": 3895,
      "ms": 3896,
      "Ġcrisis": 3897,
      "Ġoro": 3898,
      "utr": 3899,
      "Ġsabe": 3900,
      "ificar": 3901,
      "Ġpelo": 3902,
      "ĠCÃ³mo": 3903,
      "pal": 3904,
      "68": 3905,
      "\\/\\/": 3906,
      "79": 3907,
      "idencia": 3908,
      "ICO": 3909,
      "ĠFel": 3910,
      "edio": 3911,
      "--------": 3912,
      "Ġdan": 3913,
      "ĠVic": 3914,
      "Ġprueba": 3915,
      "Ġadi": 3916,
      "Ġexiste": 3917,
      "ĠSU": 3918,
      "ĠinglÃ©s": 3919,
      "zada": 3920,
      "ĠYou": 3921,
      "Des": 3922,
      "Ġï¿½": 3923,
      "idor": 3924,
      "ĠAt": 3925,
      "ĠBer": 3926,
      "cla": 3927,
      "Ġorg": 3928,
      "bao": 3929,
      "ĠGonz": 3930,
      "Ġinmedia": 3931,
      "Ġpantalla": 3932,
      "olla": 3933,
      "ĠMuy": 3934,
      "Ġtarje": 3935,
      "ĠCara": 3936,
      "ses": 3937,
      "ĠGays": 3938,
      "iana": 3939,
      "cra": 3940,
      "ĠpelÃŃculas": 3941,
      "Ġpud": 3942,
      "Ġsiglo": 3943,
      "Ġperm": 3944,
      "ĠEj": 3945,
      "Ġcliente": 3946,
      "ĠVenezuela": 3947,
      "Ġsh": 3948,
      "idado": 3949,
      "Ġeran": 3950,
      "ĠrazÃ³n": 3951,
      "ĠhistÃ³r": 3952,
      "Ġlugares": 3953,
      "ĠfunciÃ³n": 3954,
      "52": 3955,
      "entai": 3956,
      "Ġgo": 3957,
      "CÃ³mo": 3958,
      "Ġnecesidades": 3959,
      "Ġkil": 3960,
      "rasil": 3961,
      "Ġninguna": 3962,
      "ĠJul": 3963,
      "etas": 3964,
      "antil": 3965,
      "Ġpartes": 3966,
      "Ġpadre": 3967,
      "ĠTener": 3968,
      "Ġconsec": 3969,
      "Ġmexic": 3970,
      "Ex": 3971,
      "ĠMejores": 3972,
      "Ġclub": 3973,
      "don": 3974,
      "Ġdepen": 3975,
      "eral": 3976,
      "videos": 3977,
      "rir": 3978,
      "arlo": 3979,
      "Ġhermos": 3980,
      "ĠII": 3981,
      "ĠBra": 3982,
      "ĠPedro": 3983,
      "Ġdolor": 3984,
      "Ġdisco": 3985,
      "ĠtodavÃŃa": 3986,
      "ĠJus": 3987,
      "Ġambiente": 3988,
      "entarios": 3989,
      "ĠTec": 3990,
      "igue": 3991,
      "ĠSem": 3992,
      "CA": 3993,
      "Ġ90": 3994,
      "riba": 3995,
      "=\"": 3996,
      "rio": 3997,
      "culos": 3998,
      "Ġren": 3999,
      "Ġincorpor": 4000,
      "Ġmm": 4001,
      "Ġvin": 4002,
      "Ġmismos": 4003,
      "Ġtierra": 4004,
      "Ġconocimiento": 4005,
      "90": 4006,
      "roid": 4007,
      "Ġasoci": 4008,
      "ĠGarcÃŃa": 4009,
      "uye": 4010,
      "let": 4011,
      "lic": 4012,
      "Ġcrecimiento": 4013,
      "indows": 4014,
      "Ġformas": 4015,
      "ĠSecre": 4016,
      "ĠallÃŃ": 4017,
      "ique": 4018,
      "53": 4019,
      "Ġconsidera": 4020,
      "BA": 4021,
      "ĠFrancisco": 4022,
      "Ġganar": 4023,
      "grama": 4024,
      "lez": 4025,
      "Ġambos": 4026,
      "ete": 4027,
      "usa": 4028,
      "Ġtotalmente": 4029,
      "amb": 4030,
      "ornada": 4031,
      "entemente": 4032,
      "Ġespos": 4033,
      "ĠFer": 4034,
      "htm": 4035,
      "Ġdoble": 4036,
      "ĠorganizaciÃ³n": 4037,
      "ĠMag": 4038,
      "ĠJav": 4039,
      "ĠpodrÃ¡": 4040,
      "ĠDomin": 4041,
      "istad": 4042,
      "Ġpoten": 4043,
      "iblio": 4044,
      "ĠpÃºblica": 4045,
      "Ġrequier": 4046,
      "Ġverano": 4047,
      "Ġoferta": 4048,
      "Ġacerca": 4049,
      "atch": 4050,
      "art": 4051,
      "Ġ07": 4052,
      "vas": 4053,
      "Ġespecialmente": 4054,
      "100": 4055,
      "Ġevalu": 4056,
      "ÃŃdo": 4057,
      "Ã³nde": 4058,
      "ĠEr": 4059,
      "ĠAma": 4060,
      "ĠGor": 4061,
      "ky": 4062,
      "ĠEscort": 4063,
      "undo": 4064,
      "Ġdibu": 4065,
      "Ġbuenas": 4066,
      "Ġdemos": 4067,
      "ĠdÃ³": 4068,
      "ĠelectrÃ³nico": 4069,
      "ĠEducaciÃ³n": 4070,
      "Ġdisponible": 4071,
      "Ġesfuer": 4072,
      "Ġhid": 4073,
      "wer": 4074,
      "urantes": 4075,
      "iles": 4076,
      "ĠbÃºsqueda": 4077,
      "titud": 4078,
      "Ġrepresent": 4079,
      "ĠApl": 4080,
      "room": 4081,
      "Ġefecto": 4082,
      "Ġsistemas": 4083,
      "Ġ80": 4084,
      "pea": 4085,
      "siones": 4086,
      "ĠChina": 4087,
      "Ġembara": 4088,
      "mento": 4089,
      "itaria": 4090,
      ",,": 4091,
      "visor": 4092,
      "Ġhacerlo": 4093,
      "aliza": 4094,
      "ĠEscorts": 4095
    },
    "merges": [
      [
        "d",
        "e"
      ],
      [
        "e",
        "n"
      ],
      [
        "Ġ",
        "de"
      ],
      [
        "e",
        "s"
      ],
      [
        "o",
        "s"
      ],
      [
        "Ġ",
        "p"
      ],
      [
        "a",
        "r"
      ],
      [
        "e",
        "r"
      ],
      [
        "a",
        "s"
      ],
      [
        "Ġ",
        "l"
      ],
      [
        "Ġ",
        "c"
      ],
      [
        "o",
        "n"
      ],
      [
        "Ġ",
        "a"
      ],
      [
        "o",
        "r"
      ],
      [
        "Ġ",
        "s"
      ],
      [
        "c",
        "i"
      ],
      [
        "a",
        "n"
      ],
      [
        "u",
        "e"
      ],
      [
        "a",
        "l"
      ],
      [
        "a",
        "d"
      ],
      [
        "Ġ",
        "m"
      ],
      [
        "i",
        "n"
      ],
      [
        "e",
        "l"
      ],
      [
        "t",
        "i"
      ],
      [
        "Ġ",
        "en"
      ],
      [
        "r",
        "e"
      ],
      [
        "u",
        "n"
      ],
      [
        "Ã",
        "³"
      ],
      [
        "Ġl",
        "a"
      ],
      [
        "t",
        "e"
      ],
      [
        "q",
        "ue"
      ],
      [
        "t",
        "a"
      ],
      [
        "Ġ",
        "y"
      ],
      [
        "t",
        "r"
      ],
      [
        "Ġ",
        "es"
      ],
      [
        "Ġ",
        "que"
      ],
      [
        "t",
        "o"
      ],
      [
        "Ġ",
        "el"
      ],
      [
        "Ġ",
        "C"
      ],
      [
        "i",
        "c"
      ],
      [
        "o",
        "m"
      ],
      [
        "i",
        "s"
      ],
      [
        "Ã",
        "Ń"
      ],
      [
        "Ã³",
        "n"
      ],
      [
        "Ã",
        "¡"
      ],
      [
        "Ġc",
        "on"
      ],
      [
        "Ġ",
        "n"
      ],
      [
        "Ġ",
        "E"
      ],
      [
        "Ġ",
        "h"
      ],
      [
        "Ġ",
        "P"
      ],
      [
        "d",
        "o"
      ],
      [
        "Ġ",
        "un"
      ],
      [
        "Ġ",
        "v"
      ],
      [
        "Ġ",
        "S"
      ],
      [
        "Ġ",
        "A"
      ],
      [
        "o",
        "l"
      ],
      [
        "Ġ",
        "d"
      ],
      [
        "Ġ",
        "f"
      ],
      [
        "Ġ",
        "M"
      ],
      [
        "Ġs",
        "e"
      ],
      [
        "r",
        "a"
      ],
      [
        "r",
        "o"
      ],
      [
        "ci",
        "Ã³n"
      ],
      [
        "ar",
        "a"
      ],
      [
        "i",
        "d"
      ],
      [
        "Ġ",
        "D"
      ],
      [
        "a",
        "m"
      ],
      [
        "Ġ",
        "L"
      ],
      [
        "Ġ",
        "e"
      ],
      [
        "t",
        "u"
      ],
      [
        "Ġ",
        "o"
      ],
      [
        "i",
        "l"
      ],
      [
        "Ġl",
        "os"
      ],
      [
        "Ã",
        "©"
      ],
      [
        "Ġp",
        "or"
      ],
      [
        "Ġ",
        "in"
      ],
      [
        "Ġ",
        "g"
      ],
      [
        "Ġ",
        "b"
      ],
      [
        "i",
        "en"
      ],
      [
        "l",
        "e"
      ],
      [
        "u",
        "s"
      ],
      [
        "ad",
        "o"
      ],
      [
        "i",
        "m"
      ],
      [
        "Ġde",
        "l"
      ],
      [
        "e",
        "c"
      ],
      [
        ".",
        "."
      ],
      [
        "a",
        "b"
      ],
      [
        "Ġ",
        "re"
      ],
      [
        "r",
        "es"
      ],
      [
        "Ġ",
        "2"
      ],
      [
        "u",
        "l"
      ],
      [
        "Ġc",
        "om"
      ],
      [
        "Ġ",
        "1"
      ],
      [
        "Ġp",
        "ara"
      ],
      [
        "Ġ",
        "T"
      ],
      [
        "t",
        "os"
      ],
      [
        "Ġa",
        "l"
      ],
      [
        "Ġ",
        "t"
      ],
      [
        "Ã",
        "±"
      ],
      [
        "ci",
        "on"
      ],
      [
        "i",
        "a"
      ],
      [
        "Ġl",
        "as"
      ],
      [
        "i",
        "o"
      ],
      [
        "Ġ",
        "B"
      ],
      [
        "a",
        "c"
      ],
      [
        "t",
        "er"
      ],
      [
        "Ġs",
        "u"
      ],
      [
        "Ġ",
        "R"
      ],
      [
        "q",
        "u"
      ],
      [
        "Ġ",
        "G"
      ],
      [
        "i",
        "g"
      ],
      [
        "Ġn",
        "o"
      ],
      [
        "t",
        "as"
      ],
      [
        "u",
        "r"
      ],
      [
        "a",
        "ciÃ³n"
      ],
      [
        "ÃŃ",
        "a"
      ],
      [
        "Ġun",
        "a"
      ],
      [
        "en",
        "te"
      ],
      [
        "i",
        "r"
      ],
      [
        "Ġ",
        "F"
      ],
      [
        "â",
        "Ģ"
      ],
      [
        "Ġ",
        "("
      ],
      [
        "Ġ",
        "V"
      ],
      [
        "e",
        "m"
      ],
      [
        "l",
        "o"
      ],
      [
        "l",
        "a"
      ],
      [
        "Ġp",
        "ro"
      ],
      [
        "c",
        "h"
      ],
      [
        "e",
        "d"
      ],
      [
        "t",
        "ar"
      ],
      [
        "Ġ",
        "N"
      ],
      [
        "Ã¡",
        "s"
      ],
      [
        "i",
        "de"
      ],
      [
        "Ġ",
        "tr"
      ],
      [
        "t",
        "es"
      ],
      [
        "ad",
        "a"
      ],
      [
        "Ġp",
        "er"
      ],
      [
        "Ġ",
        "I"
      ],
      [
        "Ġde",
        "s"
      ],
      [
        "m",
        "a"
      ],
      [
        "Ġ",
        "H"
      ],
      [
        "0",
        "1"
      ],
      [
        "d",
        "a"
      ],
      [
        "c",
        "a"
      ],
      [
        "ci",
        "a"
      ],
      [
        "Ġc",
        "u"
      ],
      [
        "i",
        "v"
      ],
      [
        "i",
        "z"
      ],
      [
        "Ġl",
        "o"
      ],
      [
        "i",
        "b"
      ],
      [
        "0",
        "0"
      ],
      [
        "ĠE",
        "s"
      ],
      [
        "t",
        "or"
      ],
      [
        "Ã",
        "º"
      ],
      [
        "g",
        "o"
      ],
      [
        "al",
        "es"
      ],
      [
        "i",
        "er"
      ],
      [
        "i",
        "ci"
      ],
      [
        "Ġ",
        "to"
      ],
      [
        "p",
        "a"
      ],
      [
        "n",
        "o"
      ],
      [
        "Ġp",
        "r"
      ],
      [
        "an",
        "do"
      ],
      [
        "ti",
        "v"
      ],
      [
        "c",
        "o"
      ],
      [
        "Ġm",
        "u"
      ],
      [
        "id",
        "ad"
      ],
      [
        "ic",
        "a"
      ],
      [
        "a",
        "y"
      ],
      [
        "a",
        "j"
      ],
      [
        "Ġa",
        "c"
      ],
      [
        "t",
        "en"
      ],
      [
        "ĠE",
        "n"
      ],
      [
        "ĠD",
        "e"
      ],
      [
        "cion",
        "es"
      ],
      [
        "Ġ",
        "r"
      ],
      [
        "Ġm",
        "e"
      ],
      [
        "b",
        "re"
      ],
      [
        "Ġ",
        "-"
      ],
      [
        "Ġ",
        "j"
      ],
      [
        "Ġ",
        "ti"
      ],
      [
        "Ġe",
        "x"
      ],
      [
        "Ġa",
        "n"
      ],
      [
        "ĠE",
        "l"
      ],
      [
        "u",
        "m"
      ],
      [
        "Ġcom",
        "o"
      ],
      [
        "e",
        "g"
      ],
      [
        "ĠL",
        "a"
      ],
      [
        "er",
        "a"
      ],
      [
        "Ġ",
        "J"
      ],
      [
        "p",
        "o"
      ],
      [
        "Ġp",
        "ar"
      ],
      [
        "u",
        "es"
      ],
      [
        "ad",
        "os"
      ],
      [
        "Ġ",
        "O"
      ],
      [
        "er",
        "o"
      ],
      [
        "i",
        "t"
      ],
      [
        "m",
        "o"
      ],
      [
        "Ġm",
        "Ã¡s"
      ],
      [
        "de",
        "s"
      ],
      [
        "Ġ",
        "âĢ"
      ],
      [
        "d",
        "i"
      ],
      [
        "Ġs",
        "i"
      ],
      [
        "ta",
        "m"
      ],
      [
        "Ġ",
        "U"
      ],
      [
        "tr",
        "o"
      ],
      [
        "id",
        "a"
      ],
      [
        "tr",
        "a"
      ],
      [
        "ti",
        "s"
      ],
      [
        "r",
        "an"
      ],
      [
        "p",
        "or"
      ],
      [
        "Ã¡",
        "n"
      ],
      [
        "Ġ2",
        "01"
      ],
      [
        "u",
        "c"
      ],
      [
        "ic",
        "o"
      ],
      [
        "i",
        "os"
      ],
      [
        "ad",
        "or"
      ],
      [
        "Ġs",
        "o"
      ],
      [
        "an",
        "te"
      ],
      [
        "Ġs",
        "er"
      ],
      [
        "Ġ",
        "te"
      ],
      [
        "s",
        "e"
      ],
      [
        "..",
        "."
      ],
      [
        "Ġ",
        "3"
      ],
      [
        "Ġp",
        "o"
      ],
      [
        "a",
        "t"
      ],
      [
        "p",
        "e"
      ],
      [
        "u",
        "d"
      ],
      [
        "ĠC",
        "on"
      ],
      [
        "p",
        "er"
      ],
      [
        "u",
        "en"
      ],
      [
        "i",
        "Ã³n"
      ],
      [
        "ĠS",
        "e"
      ],
      [
        "or",
        "m"
      ],
      [
        "Ġ",
        "Â"
      ],
      [
        "Ġ",
        "res"
      ],
      [
        "b",
        "i"
      ],
      [
        "a",
        "g"
      ],
      [
        "in",
        "g"
      ],
      [
        "i",
        "f"
      ],
      [
        "Ġes",
        "t"
      ],
      [
        "u",
        "b"
      ],
      [
        "ĠI",
        "n"
      ],
      [
        "p",
        "l"
      ],
      [
        "ien",
        "to"
      ],
      [
        "j",
        "er"
      ],
      [
        "i",
        "on"
      ],
      [
        "de",
        "r"
      ],
      [
        "Ġd",
        "is"
      ],
      [
        "ra",
        "tis"
      ],
      [
        "ĠC",
        "h"
      ],
      [
        "Ġh",
        "a"
      ],
      [
        "Ġ",
        "as"
      ],
      [
        "Ġes",
        "ta"
      ],
      [
        "e",
        "z"
      ],
      [
        "Ġp",
        "re"
      ],
      [
        "ti",
        "c"
      ],
      [
        "en",
        "t"
      ],
      [
        "n",
        "a"
      ],
      [
        "Ġ",
        "qu"
      ],
      [
        "ĠP",
        "or"
      ],
      [
        "in",
        "a"
      ],
      [
        "r",
        "i"
      ],
      [
        "Ġp",
        "ue"
      ],
      [
        "e",
        "b"
      ],
      [
        "x",
        "o"
      ],
      [
        "l",
        "es"
      ],
      [
        "Ġ",
        "im"
      ],
      [
        "ide",
        "os"
      ],
      [
        "g",
        "u"
      ],
      [
        "d",
        "os"
      ],
      [
        "c",
        "on"
      ],
      [
        "Ġ",
        "tu"
      ],
      [
        "u",
        "er"
      ],
      [
        "c",
        "e"
      ],
      [
        "Ġ",
        "Y"
      ],
      [
        "l",
        "as"
      ],
      [
        "p",
        "ar"
      ],
      [
        "Ġe",
        "m"
      ],
      [
        "Ġt",
        "en"
      ],
      [
        "Ġl",
        "e"
      ],
      [
        "Ġ",
        "ar"
      ],
      [
        "an",
        "a"
      ],
      [
        "a",
        "v"
      ],
      [
        "Ã©",
        "s"
      ],
      [
        "Ġcon",
        "s"
      ],
      [
        "t",
        "re"
      ],
      [
        "t",
        "al"
      ],
      [
        "en",
        "ta"
      ],
      [
        "Ã±",
        "o"
      ],
      [
        "Ġs",
        "us"
      ],
      [
        "Ġc",
        "h"
      ],
      [
        "Ġa",
        "m"
      ],
      [
        "Ã©",
        "n"
      ],
      [
        "er",
        "s"
      ],
      [
        "âĢ",
        "Ŀ"
      ],
      [
        "Ġ",
        "4"
      ],
      [
        "ĠâĢ",
        "ľ"
      ],
      [
        "l",
        "an"
      ],
      [
        "de",
        "n"
      ],
      [
        "ad",
        "as"
      ],
      [
        "Ġc",
        "as"
      ],
      [
        "ue",
        "v"
      ],
      [
        "Ġh",
        "ac"
      ],
      [
        "or",
        "es"
      ],
      [
        "e",
        "t"
      ],
      [
        "en",
        "s"
      ],
      [
        "c",
        "ul"
      ],
      [
        "Ġes",
        "te"
      ],
      [
        "Ġm",
        "an"
      ],
      [
        "p",
        "res"
      ],
      [
        "Ġ",
        "\""
      ],
      [
        "r",
        "as"
      ],
      [
        "g",
        "ar"
      ],
      [
        "tr",
        "os"
      ],
      [
        "o",
        "c"
      ],
      [
        "i",
        "do"
      ],
      [
        "i",
        "e"
      ],
      [
        "Ġm",
        "o"
      ],
      [
        "s",
        "on"
      ],
      [
        "l",
        "os"
      ],
      [
        "Ã±",
        "os"
      ],
      [
        "p",
        "on"
      ],
      [
        "z",
        "a"
      ],
      [
        "Ġp",
        "res"
      ],
      [
        "Ġh",
        "ab"
      ],
      [
        "ĠA",
        "l"
      ],
      [
        "m",
        "ente"
      ],
      [
        "Ġ",
        "W"
      ],
      [
        "Ġ",
        "5"
      ],
      [
        "al",
        "iz"
      ],
      [
        "Ġcom",
        "p"
      ],
      [
        "v",
        "en"
      ],
      [
        "Ġc",
        "a"
      ],
      [
        "Ġs",
        "in"
      ],
      [
        "Ġp",
        "a"
      ],
      [
        "d",
        "uc"
      ],
      [
        "or",
        "a"
      ],
      [
        "Ġc",
        "am"
      ],
      [
        "g",
        "a"
      ],
      [
        "Ġd",
        "i"
      ],
      [
        "c",
        "om"
      ],
      [
        "Ġin",
        "ter"
      ],
      [
        "Ġti",
        "en"
      ],
      [
        "j",
        "o"
      ],
      [
        "Ġv",
        "er"
      ],
      [
        "ic",
        "as"
      ],
      [
        "x",
        "x"
      ],
      [
        "g",
        "un"
      ],
      [
        "Ġpor",
        "no"
      ],
      [
        "r",
        "u"
      ],
      [
        "b",
        "le"
      ],
      [
        "ci",
        "as"
      ],
      [
        "c",
        "es"
      ],
      [
        "Ġper",
        "o"
      ],
      [
        "Ġ",
        "or"
      ],
      [
        "o",
        "t"
      ],
      [
        "Ġ",
        "0"
      ],
      [
        "ĠC",
        "om"
      ],
      [
        "i",
        "ta"
      ],
      [
        "am",
        "os"
      ],
      [
        "Ġs",
        "on"
      ],
      [
        "Ġ",
        "w"
      ],
      [
        "Ġper",
        "son"
      ],
      [
        "c",
        "ar"
      ],
      [
        "ti",
        "tu"
      ],
      [
        "Ġs",
        "ol"
      ],
      [
        "ĠA",
        "n"
      ],
      [
        "Ġso",
        "bre"
      ],
      [
        "c",
        "l"
      ],
      [
        "p",
        "os"
      ],
      [
        "Ġp",
        "as"
      ],
      [
        "ti",
        "l"
      ],
      [
        "ci",
        "o"
      ],
      [
        "Ġin",
        "f"
      ],
      [
        "Ġo",
        "b"
      ],
      [
        "ÃŃ",
        "s"
      ],
      [
        "ÃŃ",
        "n"
      ],
      [
        "h",
        "o"
      ],
      [
        "d",
        "as"
      ],
      [
        "ĠD",
        "E"
      ],
      [
        "re",
        "c"
      ],
      [
        "en",
        "cia"
      ],
      [
        "Ġc",
        "o"
      ],
      [
        "pa",
        "Ã±"
      ],
      [
        "an",
        "o"
      ],
      [
        "b",
        "a"
      ],
      [
        "Ġo",
        "f"
      ],
      [
        "i",
        "as"
      ],
      [
        "ĠR",
        "e"
      ],
      [
        "E",
        "R"
      ],
      [
        "m",
        "os"
      ],
      [
        "ĠN",
        "o"
      ],
      [
        "Ġes",
        "c"
      ],
      [
        "Ġc",
        "or"
      ],
      [
        "Ġs",
        "al"
      ],
      [
        "Ġ",
        "|"
      ],
      [
        "g",
        "ra"
      ],
      [
        "d",
        "ad"
      ],
      [
        "Ãº",
        "n"
      ],
      [
        "ar",
        "io"
      ],
      [
        "Ġa",
        "b"
      ],
      [
        "Ġm",
        "ed"
      ],
      [
        "on",
        "a"
      ],
      [
        "Ġme",
        "j"
      ],
      [
        "t",
        "an"
      ],
      [
        "Ġen",
        "tre"
      ],
      [
        "ci",
        "al"
      ],
      [
        "\"",
        ":"
      ],
      [
        "Ġg",
        "ratis"
      ],
      [
        "e",
        "j"
      ],
      [
        "Ġc",
        "ar"
      ],
      [
        "Ġm",
        "i"
      ],
      [
        "en",
        "to"
      ],
      [
        "..",
        ".."
      ],
      [
        "Ġv",
        "ideos"
      ],
      [
        "t",
        "in"
      ],
      [
        "ĠU",
        "n"
      ],
      [
        "Ġm",
        "ar"
      ],
      [
        "Ġl",
        "le"
      ],
      [
        "ĠM",
        "ar"
      ],
      [
        "Ġm",
        "a"
      ],
      [
        "h",
        "e"
      ],
      [
        "m",
        "as"
      ],
      [
        "Ġm",
        "is"
      ],
      [
        "Ġc",
        "al"
      ],
      [
        "E",
        "S"
      ],
      [
        "am",
        "ente"
      ],
      [
        "jer",
        "es"
      ],
      [
        "Ġmu",
        "y"
      ],
      [
        "tu",
        "ra"
      ],
      [
        "Ġ",
        "#"
      ],
      [
        "d",
        "r"
      ],
      [
        "in",
        "e"
      ],
      [
        "em",
        "os"
      ],
      [
        "Ġ",
        "6"
      ],
      [
        "is",
        "ta"
      ],
      [
        "Ġp",
        "os"
      ],
      [
        "l",
        "ar"
      ],
      [
        "Ġy",
        "a"
      ],
      [
        ",",
        "\""
      ],
      [
        "Ġmu",
        "ch"
      ],
      [
        "j",
        "e"
      ],
      [
        "es",
        "ti"
      ],
      [
        "Ġ",
        "us"
      ],
      [
        "ï",
        "¿"
      ],
      [
        "ï¿",
        "½"
      ],
      [
        "Ġc",
        "ol"
      ],
      [
        "Ġn",
        "uev"
      ],
      [
        "Ġf",
        "or"
      ],
      [
        "tu",
        "r"
      ],
      [
        "ti",
        "ca"
      ],
      [
        "ic",
        "os"
      ],
      [
        "A",
        "R"
      ],
      [
        "tiv",
        "o"
      ],
      [
        "ec",
        "es"
      ],
      [
        "Ġc",
        "re"
      ],
      [
        "Ġg",
        "ran"
      ],
      [
        "O",
        "S"
      ],
      [
        "Ġpr",
        "im"
      ],
      [
        "ĠL",
        "os"
      ],
      [
        "Ġn",
        "os"
      ],
      [
        "Ġto",
        "do"
      ],
      [
        "ĠÂ",
        "¿"
      ],
      [
        "cion",
        "al"
      ],
      [
        "ÃŃ",
        "as"
      ],
      [
        "ien",
        "te"
      ],
      [
        "bi",
        "Ã©n"
      ],
      [
        "m",
        "in"
      ],
      [
        "E",
        "N"
      ],
      [
        "tr",
        "as"
      ],
      [
        "ĠP",
        "ara"
      ],
      [
        "Ġn",
        "ues"
      ],
      [
        "O",
        "N"
      ],
      [
        "Ġa",
        "p"
      ],
      [
        "Ġ",
        "tam"
      ],
      [
        "Ġ",
        "Q"
      ],
      [
        "ĠM",
        "u"
      ],
      [
        "ĠS",
        "an"
      ],
      [
        "el",
        "a"
      ],
      [
        "t",
        "ado"
      ],
      [
        "Ġ",
        "7"
      ],
      [
        "Ġf",
        "in"
      ],
      [
        "v",
        "er"
      ],
      [
        "ta",
        "c"
      ],
      [
        "r",
        "en"
      ],
      [
        "Ġ",
        "K"
      ],
      [
        "C",
        "I"
      ],
      [
        "ion",
        "es"
      ],
      [
        "Ġse",
        "xo"
      ],
      [
        "v",
        "i"
      ],
      [
        "2",
        "01"
      ],
      [
        "o",
        "ci"
      ],
      [
        "A",
        "S"
      ],
      [
        "u",
        "al"
      ],
      [
        "ĠA",
        "r"
      ],
      [
        "Ġt",
        "an"
      ],
      [
        "Ġde",
        "b"
      ],
      [
        "Ġa",
        "u"
      ],
      [
        "om",
        "b"
      ],
      [
        "Ġin",
        "s"
      ],
      [
        "aj",
        "o"
      ],
      [
        "Ġ",
        "8"
      ],
      [
        "r",
        "os"
      ],
      [
        "o",
        "g"
      ],
      [
        "Ġtr",
        "ab"
      ],
      [
        "o",
        "b"
      ],
      [
        "ci",
        "os"
      ],
      [
        "Ġest",
        "Ã¡"
      ],
      [
        "en",
        "tes"
      ],
      [
        "ida",
        "des"
      ],
      [
        "g",
        "os"
      ],
      [
        "A",
        "N"
      ],
      [
        "Ġ1",
        "9"
      ],
      [
        "ĠD",
        "es"
      ],
      [
        "z",
        "o"
      ],
      [
        "Ġn",
        "i"
      ],
      [
        "il",
        "l"
      ],
      [
        ")",
        "."
      ],
      [
        "Ġh",
        "ay"
      ],
      [
        "ti",
        "r"
      ],
      [
        "Ġo",
        "p"
      ],
      [
        "Ġ",
        "9"
      ],
      [
        "Ġs",
        "ig"
      ],
      [
        "f",
        "ec"
      ],
      [
        "c",
        "u"
      ],
      [
        "Ġpue",
        "de"
      ],
      [
        "ien",
        "do"
      ],
      [
        "ar",
        "r"
      ],
      [
        "in",
        "o"
      ],
      [
        "on",
        "es"
      ],
      [
        "Ġdes",
        "de"
      ],
      [
        "Ġ",
        "X"
      ],
      [
        "Ġl",
        "u"
      ],
      [
        "o",
        "y"
      ],
      [
        "an",
        "tes"
      ],
      [
        "Ġa",
        "Ã±os"
      ],
      [
        "p",
        "le"
      ],
      [
        "Ġm",
        "ay"
      ],
      [
        "ĠSe",
        "xo"
      ],
      [
        "ide",
        "n"
      ],
      [
        "ti",
        "co"
      ],
      [
        "an",
        "s"
      ],
      [
        "e",
        "a"
      ],
      [
        "er",
        "v"
      ],
      [
        "c",
        "el"
      ],
      [
        "en",
        "er"
      ],
      [
        "as",
        "ta"
      ],
      [
        "O",
        "R"
      ],
      [
        "Ġa",
        "d"
      ],
      [
        "ĠPor",
        "no"
      ],
      [
        "Ġhac",
        "er"
      ],
      [
        "Ġ1",
        "0"
      ],
      [
        "o",
        "tos"
      ],
      [
        "ĠM",
        "ad"
      ],
      [
        "Ġp",
        "el"
      ],
      [
        "ĠG",
        "ratis"
      ],
      [
        "Ġ",
        "Z"
      ],
      [
        "r",
        "id"
      ],
      [
        "ic",
        "aciÃ³n"
      ],
      [
        ")",
        ","
      ],
      [
        "ue",
        "l"
      ],
      [
        "p",
        "ec"
      ],
      [
        "Ġtam",
        "biÃ©n"
      ],
      [
        "Ġm",
        "as"
      ],
      [
        "b",
        "l"
      ],
      [
        "p",
        "ues"
      ],
      [
        "Ġc",
        "an"
      ],
      [
        "A",
        "L"
      ],
      [
        "f",
        "er"
      ],
      [
        "p",
        "u"
      ],
      [
        "qu",
        "i"
      ],
      [
        "ÃŃ",
        "cul"
      ],
      [
        "tr",
        "ar"
      ],
      [
        "m",
        "an"
      ],
      [
        "Ġm",
        "en"
      ],
      [
        "ĠC",
        "as"
      ],
      [
        "en",
        "tar"
      ],
      [
        "ter",
        "i"
      ],
      [
        "Ġmej",
        "or"
      ],
      [
        "ab",
        "le"
      ],
      [
        "ide",
        "o"
      ],
      [
        "Ġtien",
        "e"
      ],
      [
        "c",
        "or"
      ],
      [
        "ici",
        "o"
      ],
      [
        "is",
        "te"
      ],
      [
        "Ġre",
        "g"
      ],
      [
        "n",
        "os"
      ],
      [
        "Ġ",
        "/"
      ],
      [
        "Ġd",
        "os"
      ],
      [
        "Ġf",
        "ue"
      ],
      [
        "ci",
        "p"
      ],
      [
        "u",
        "ra"
      ],
      [
        "ti",
        "on"
      ],
      [
        "Ġm",
        "ad"
      ],
      [
        "i",
        "to"
      ],
      [
        "p",
        "re"
      ],
      [
        "Ġp",
        "ol"
      ],
      [
        "Ġ",
        "do"
      ],
      [
        "m",
        "e"
      ],
      [
        "g",
        "an"
      ],
      [
        "tiv",
        "a"
      ],
      [
        "j",
        "a"
      ],
      [
        "ot",
        "el"
      ],
      [
        "v",
        "e"
      ],
      [
        "Ġm",
        "un"
      ],
      [
        "s",
        "o"
      ],
      [
        "Ġto",
        "dos"
      ],
      [
        "v",
        "il"
      ],
      [
        "Ġc",
        "os"
      ],
      [
        "ub",
        "l"
      ],
      [
        "ĠP",
        "ar"
      ],
      [
        "ĠP",
        "ro"
      ],
      [
        "ĠS",
        "i"
      ],
      [
        "Ġb",
        "uen"
      ],
      [
        "id",
        "os"
      ],
      [
        "ador",
        "es"
      ],
      [
        "t",
        "on"
      ],
      [
        "ol",
        "l"
      ],
      [
        "Ġcu",
        "ando"
      ],
      [
        "Ġc",
        "i"
      ],
      [
        "Ġt",
        "er"
      ],
      [
        "c",
        "an"
      ],
      [
        "m",
        "i"
      ],
      [
        "r",
        "ar"
      ],
      [
        "er",
        "os"
      ],
      [
        "Ġc",
        "l"
      ],
      [
        "ĠA",
        "s"
      ],
      [
        "ĠL",
        "as"
      ],
      [
        "2",
        "0"
      ],
      [
        "p",
        "i"
      ],
      [
        "en",
        "d"
      ],
      [
        "Ġd",
        "on"
      ],
      [
        "om",
        "bre"
      ],
      [
        "c",
        "uen"
      ],
      [
        "1",
        "1"
      ],
      [
        "Ġpro",
        "duc"
      ],
      [
        "Ġl",
        "ib"
      ],
      [
        "r",
        "is"
      ],
      [
        "Ġd",
        "if"
      ],
      [
        "Ġb",
        "ien"
      ],
      [
        "Ġn",
        "eces"
      ],
      [
        "Ġcu",
        "al"
      ],
      [
        "g",
        "en"
      ],
      [
        "Ġ",
        "k"
      ],
      [
        "!",
        "!"
      ],
      [
        "Ġf",
        "un"
      ],
      [
        "Ġ2",
        "0"
      ],
      [
        "Ġ2",
        "00"
      ],
      [
        "o",
        "o"
      ],
      [
        "i",
        "tar"
      ],
      [
        "Ġn",
        "a"
      ],
      [
        "Ġh",
        "asta"
      ],
      [
        "ar",
        "ios"
      ],
      [
        "i",
        "es"
      ],
      [
        "Ġ",
        "u"
      ],
      [
        "Ġh",
        "an"
      ],
      [
        "ĠV",
        "ideos"
      ],
      [
        "Ġv",
        "is"
      ],
      [
        "Ġd",
        "a"
      ],
      [
        "t",
        "s"
      ],
      [
        "ec",
        "h"
      ],
      [
        "Ġg",
        "ra"
      ],
      [
        "iv",
        "ers"
      ],
      [
        "al",
        "l"
      ],
      [
        "Ã©",
        "r"
      ],
      [
        "Ġinf",
        "orm"
      ],
      [
        "v",
        "is"
      ],
      [
        "Ġti",
        "em"
      ],
      [
        "Ġc",
        "er"
      ],
      [
        "ĠA",
        "m"
      ],
      [
        "Ġp",
        "u"
      ],
      [
        "A",
        "D"
      ],
      [
        "ul",
        "ar"
      ],
      [
        "id",
        "as"
      ],
      [
        "w",
        "w"
      ],
      [
        "Ġb",
        "us"
      ],
      [
        "ib",
        "le"
      ],
      [
        "t",
        "t"
      ],
      [
        "Ġde",
        "ci"
      ],
      [
        "ien",
        "tes"
      ],
      [
        "c",
        "as"
      ],
      [
        "Ġ",
        ","
      ],
      [
        "qu",
        "ier"
      ],
      [
        "Ġ",
        "."
      ],
      [
        "am",
        "iento"
      ],
      [
        "c",
        "ur"
      ],
      [
        "en",
        "a"
      ],
      [
        "Ġmu",
        "jeres"
      ],
      [
        "e",
        "x"
      ],
      [
        "ic",
        "ado"
      ],
      [
        "aj",
        "e"
      ],
      [
        "Ġdon",
        "de"
      ],
      [
        "titu",
        "tas"
      ],
      [
        "Ġpar",
        "te"
      ],
      [
        "Ã±",
        "a"
      ],
      [
        "ci",
        "l"
      ],
      [
        "ĠL",
        "e"
      ],
      [
        "I",
        "N"
      ],
      [
        "\"",
        ",\""
      ],
      [
        "tic",
        "os"
      ],
      [
        "Ġtr",
        "a"
      ],
      [
        "u",
        "ro"
      ],
      [
        "Ġal",
        "gun"
      ],
      [
        "t",
        "ante"
      ],
      [
        "te",
        "g"
      ],
      [
        "en",
        "tos"
      ],
      [
        "Ġpr",
        "os"
      ],
      [
        "Ġ1",
        "2"
      ],
      [
        "d",
        "u"
      ],
      [
        "ab",
        "a"
      ],
      [
        "l",
        "am"
      ],
      [
        "Ġser",
        "v"
      ],
      [
        "Ġfor",
        "ma"
      ],
      [
        "Ġv",
        "ez"
      ],
      [
        "Ġ",
        "ro"
      ],
      [
        "Ġm",
        "in"
      ],
      [
        "e",
        "f"
      ],
      [
        "Ġpar",
        "ti"
      ],
      [
        "ĠC",
        "ar"
      ],
      [
        "j",
        "os"
      ],
      [
        "Ġp",
        "e"
      ],
      [
        "Ġin",
        "v"
      ],
      [
        "an",
        "as"
      ],
      [
        "en",
        "do"
      ],
      [
        "m",
        "ar"
      ],
      [
        "Ġl",
        "es"
      ],
      [
        "v",
        "o"
      ],
      [
        "a",
        "p"
      ],
      [
        "ic",
        "e"
      ],
      [
        "tam",
        "os"
      ],
      [
        "ol",
        "a"
      ],
      [
        "tic",
        "as"
      ],
      [
        "Ġin",
        "d"
      ],
      [
        "l",
        "ti"
      ],
      [
        "t",
        "h"
      ],
      [
        "I",
        "C"
      ],
      [
        "u",
        "g"
      ],
      [
        "Ġs",
        "ab"
      ],
      [
        "1",
        "0"
      ],
      [
        "t",
        "ados"
      ],
      [
        "ici",
        "os"
      ],
      [
        "m",
        "Ã¡s"
      ],
      [
        "al",
        "a"
      ],
      [
        "z",
        "ar"
      ],
      [
        "Ġc",
        "ada"
      ],
      [
        "un",
        "to"
      ],
      [
        "Ġtiem",
        "po"
      ],
      [
        "-",
        "-"
      ],
      [
        "al",
        "mente"
      ],
      [
        "in",
        "as"
      ],
      [
        "e",
        "o"
      ],
      [
        "ĠC",
        "am"
      ],
      [
        "Ġ",
        "on"
      ],
      [
        "em",
        "bre"
      ],
      [
        "Ġpor",
        "que"
      ],
      [
        "Ġse",
        "x"
      ],
      [
        "Ġ",
        "ra"
      ],
      [
        "Ġre",
        "aliz"
      ],
      [
        "ar",
        "d"
      ],
      [
        "Ġes",
        "tu"
      ],
      [
        "tiv",
        "os"
      ],
      [
        "ur",
        "ante"
      ],
      [
        "c",
        "n"
      ],
      [
        "Ġem",
        "pres"
      ],
      [
        "ud",
        "ad"
      ],
      [
        "ĠC",
        "or"
      ],
      [
        "Ġ1",
        "5"
      ],
      [
        "tt",
        "p"
      ],
      [
        "ic",
        "ar"
      ],
      [
        "Ġa",
        "h"
      ],
      [
        "ĠâĢ",
        "ĵ"
      ],
      [
        "Ġp",
        "la"
      ],
      [
        "p",
        "an"
      ],
      [
        "Ġ1",
        "1"
      ],
      [
        "tor",
        "ia"
      ],
      [
        "Ġes",
        "pe"
      ],
      [
        "t",
        "el"
      ],
      [
        "Ġd",
        "ÃŃa"
      ],
      [
        "ch",
        "a"
      ],
      [
        "Ġy",
        "o"
      ],
      [
        "Ġim",
        "por"
      ],
      [
        "Ġcon",
        "f"
      ],
      [
        "Ġs",
        "en"
      ],
      [
        "is",
        "mo"
      ],
      [
        "ĠT",
        "o"
      ],
      [
        "ur",
        "as"
      ],
      [
        "a",
        "ciones"
      ],
      [
        "Ġa",
        "de"
      ],
      [
        "Ġcon",
        "tra"
      ],
      [
        "Ġa",
        "y"
      ],
      [
        "ĠS",
        "u"
      ],
      [
        "g",
        "e"
      ],
      [
        "Ġas",
        "ÃŃ"
      ],
      [
        "ÃŃ",
        "o"
      ],
      [
        "Ġ",
        "Ãº"
      ],
      [
        "ed",
        "ad"
      ],
      [
        "Ġa",
        "Ã±o"
      ],
      [
        "Ġin",
        "cl"
      ],
      [
        "i",
        "p"
      ],
      [
        "/",
        "/"
      ],
      [
        "Ġ",
        "Ã©"
      ],
      [
        "Ġp",
        "lan"
      ],
      [
        "Ġpros",
        "titutas"
      ],
      [
        "i",
        "ciÃ³n"
      ],
      [
        "v",
        "a"
      ],
      [
        "ue",
        "go"
      ],
      [
        "c",
        "al"
      ],
      [
        "Ġv",
        "en"
      ],
      [
        "il",
        "la"
      ],
      [
        "Ġv",
        "ida"
      ],
      [
        "Ġhac",
        "e"
      ],
      [
        "u",
        "y"
      ],
      [
        "ic",
        "ul"
      ],
      [
        "Ġmay",
        "or"
      ],
      [
        "Ġun",
        "o"
      ],
      [
        "ĠM",
        "a"
      ],
      [
        "it",
        "al"
      ],
      [
        "Ġperson",
        "as"
      ],
      [
        "ien",
        "tos"
      ],
      [
        "il",
        "idad"
      ],
      [
        "Ġg",
        "ener"
      ],
      [
        "Ġre",
        "ci"
      ],
      [
        "an",
        "os"
      ],
      [
        "an",
        "d"
      ],
      [
        "Ġ",
        "Ã"
      ],
      [
        "ch",
        "e"
      ],
      [
        "Ãº",
        "bl"
      ],
      [
        "Ġes",
        "to"
      ],
      [
        "u",
        "da"
      ],
      [
        "00",
        "0"
      ],
      [
        ":",
        "//"
      ],
      [
        "Ġf",
        "u"
      ],
      [
        "Ġtr",
        "ans"
      ],
      [
        "Ġ",
        "â"
      ],
      [
        "r",
        "ib"
      ],
      [
        "c",
        "re"
      ],
      [
        "Ã³",
        "mo"
      ],
      [
        "ĠB",
        "ar"
      ],
      [
        "m",
        "iento"
      ],
      [
        "Ġse",
        "g"
      ],
      [
        "Ġ1",
        "8"
      ],
      [
        "Ġpro",
        "f"
      ],
      [
        "Ġse",
        "gu"
      ],
      [
        "Ġdi",
        "rec"
      ],
      [
        "Ġv",
        "al"
      ],
      [
        "Ġm",
        "es"
      ],
      [
        "Ġb",
        "as"
      ],
      [
        "b",
        "ar"
      ],
      [
        "Ġ",
        "..."
      ],
      [
        "t",
        "Ã³"
      ],
      [
        "Ġcom",
        "un"
      ],
      [
        "Ġt",
        "he"
      ],
      [
        "o",
        "to"
      ],
      [
        "ĠP",
        "r"
      ],
      [
        "\\",
        "/"
      ],
      [
        "in",
        "cip"
      ],
      [
        "ĠC",
        "ol"
      ],
      [
        "l",
        "ine"
      ],
      [
        "Ġf",
        "uer"
      ],
      [
        "Ġv",
        "iv"
      ],
      [
        "ig",
        "o"
      ],
      [
        "Ġac",
        "tu"
      ],
      [
        "tor",
        "es"
      ],
      [
        "Ġ",
        "xx"
      ],
      [
        "ĠA",
        "c"
      ],
      [
        "Ġan",
        "d"
      ],
      [
        "Ãº",
        "s"
      ],
      [
        "x",
        "im"
      ],
      [
        "ÃŃ",
        "an"
      ],
      [
        "ĠV",
        "er"
      ],
      [
        "ĠS",
        "al"
      ],
      [
        "Ġ",
        "z"
      ],
      [
        "Ġen",
        "con"
      ],
      [
        "T",
        "A"
      ],
      [
        "\":",
        "\""
      ],
      [
        "Ġsol",
        "o"
      ],
      [
        "c",
        "am"
      ],
      [
        "1",
        "9"
      ],
      [
        "Ġlu",
        "gar"
      ],
      [
        "am",
        "il"
      ],
      [
        "al",
        "idad"
      ],
      [
        "ĠC",
        "o"
      ],
      [
        "Ġmun",
        "do"
      ],
      [
        "Ġc",
        "en"
      ],
      [
        "im",
        "iento"
      ],
      [
        "ĠM",
        "o"
      ],
      [
        "Ġmis",
        "mo"
      ],
      [
        "Ġde",
        "n"
      ],
      [
        "ĠE",
        "x"
      ],
      [
        "i",
        "tas"
      ],
      [
        "Ġc",
        "ul"
      ],
      [
        "em",
        "pre"
      ],
      [
        "Ġo",
        "tros"
      ],
      [
        "Ġh",
        "is"
      ],
      [
        "Ġ",
        ":"
      ],
      [
        "Ġh",
        "er"
      ],
      [
        "ĠCh",
        "at"
      ],
      [
        "ĠT",
        "ra"
      ],
      [
        "Ġp",
        "es"
      ],
      [
        "Ġten",
        "er"
      ],
      [
        "Ġtr",
        "av"
      ],
      [
        "Ġqu",
        "ier"
      ],
      [
        "ci",
        "n"
      ],
      [
        "c",
        "er"
      ],
      [
        "g",
        "r"
      ],
      [
        "ĠR",
        "es"
      ],
      [
        "u",
        "t"
      ],
      [
        "Ġh",
        "or"
      ],
      [
        "_",
        "_"
      ],
      [
        "i",
        "k"
      ],
      [
        "Ġ",
        "ta"
      ],
      [
        "Ġtrab",
        "aj"
      ],
      [
        "Ġcomp",
        "le"
      ],
      [
        "Ġr",
        "ela"
      ],
      [
        "1",
        "2"
      ],
      [
        "ĠL",
        "o"
      ],
      [
        "Ġpo",
        "dr"
      ],
      [
        "tac",
        "tos"
      ],
      [
        "Ġr",
        "el"
      ],
      [
        "paÃ±",
        "a"
      ],
      [
        "ti",
        "f"
      ],
      [
        "Ġe",
        "qui"
      ],
      [
        "ic",
        "h"
      ],
      [
        "ta",
        "ciÃ³n"
      ],
      [
        "Ġw",
        "eb"
      ],
      [
        "Ġpa",
        "ÃŃs"
      ],
      [
        "Ġm",
        "om"
      ],
      [
        "on",
        "o"
      ],
      [
        "ĠM",
        "e"
      ],
      [
        "5",
        "0"
      ],
      [
        "Ġest",
        "Ã¡n"
      ],
      [
        "Ġpr",
        "incip"
      ],
      [
        "ĠMu",
        "jeres"
      ],
      [
        "Ġcon",
        "tr"
      ],
      [
        "Ġpro",
        "p"
      ],
      [
        "y",
        "ec"
      ],
      [
        "Ġmuch",
        "o"
      ],
      [
        "omb",
        "res"
      ],
      [
        "Ġdif",
        "er"
      ],
      [
        "ĠÃº",
        "lti"
      ],
      [
        "Ġ1",
        "3"
      ],
      [
        "b",
        "e"
      ],
      [
        "Â",
        "Ń"
      ],
      [
        "Ġm",
        "il"
      ],
      [
        "Ġ",
        "x"
      ],
      [
        "ch",
        "o"
      ],
      [
        "ar",
        "on"
      ],
      [
        "Ġv",
        "ideo"
      ],
      [
        "i",
        "al"
      ],
      [
        "tr",
        "uc"
      ],
      [
        "gu",
        "a"
      ],
      [
        "I",
        "S"
      ],
      [
        "ol",
        "og"
      ],
      [
        "Ġ",
        "Ã¡"
      ],
      [
        "ĠMad",
        "rid"
      ],
      [
        "or",
        "d"
      ],
      [
        "aj",
        "es"
      ],
      [
        "Ġ1",
        "4"
      ],
      [
        "Ġt",
        "ar"
      ],
      [
        "I",
        "D"
      ],
      [
        "ec",
        "ho"
      ],
      [
        "Ġtrab",
        "ajo"
      ],
      [
        "Ġp",
        "l"
      ],
      [
        "âĢĿ",
        ","
      ],
      [
        "Ġg",
        "us"
      ],
      [
        "....",
        "...."
      ],
      [
        "Ġp",
        "on"
      ],
      [
        "Ġf",
        "orm"
      ],
      [
        "b",
        "er"
      ],
      [
        "ĠG",
        "u"
      ],
      [
        "b",
        "r"
      ],
      [
        "ces",
        "o"
      ],
      [
        "Ġg",
        "u"
      ],
      [
        "T",
        "E"
      ],
      [
        "Ġxx",
        "x"
      ],
      [
        "Ġn",
        "e"
      ],
      [
        "Ġ1",
        "6"
      ],
      [
        "cel",
        "ona"
      ],
      [
        "ez",
        "a"
      ],
      [
        "Ġu",
        "til"
      ],
      [
        "te",
        "d"
      ],
      [
        "Ġc",
        "ab"
      ],
      [
        "Ġf",
        "otos"
      ],
      [
        "Ġf",
        "r"
      ],
      [
        "Ġh",
        "ttp"
      ],
      [
        "Ġre",
        "f"
      ],
      [
        "Ġtan",
        "to"
      ],
      [
        "Ġdes",
        "arr"
      ],
      [
        "i",
        "Ã³"
      ],
      [
        "Ġe",
        "j"
      ],
      [
        "Ã³",
        "m"
      ],
      [
        "in",
        "ar"
      ],
      [
        "ĠIn",
        "ter"
      ],
      [
        "or",
        "ma"
      ],
      [
        "ĠSe",
        "x"
      ],
      [
        "Ġ",
        "["
      ],
      [
        "ĠN",
        "a"
      ],
      [
        "Ġcu",
        "enta"
      ],
      [
        "v",
        "an"
      ],
      [
        "ĠC",
        "u"
      ],
      [
        "ec",
        "e"
      ],
      [
        "Ġes",
        "o"
      ],
      [
        "ĠP",
        "a"
      ],
      [
        "Ġv",
        "e"
      ],
      [
        "Ġf",
        "al"
      ],
      [
        "b",
        "o"
      ],
      [
        "Ġd",
        "urante"
      ],
      [
        "Ġv",
        "ol"
      ],
      [
        "Ã³",
        "lo"
      ],
      [
        "ĠA",
        "d"
      ],
      [
        "ac",
        "h"
      ],
      [
        "ac",
        "e"
      ],
      [
        "E",
        "l"
      ],
      [
        "is",
        "tas"
      ],
      [
        "Ġsi",
        "empre"
      ],
      [
        "Ġp",
        "ues"
      ],
      [
        "c",
        "os"
      ],
      [
        "Ġes",
        "tar"
      ],
      [
        "Ġen",
        "cuen"
      ],
      [
        "Ĥ",
        "¬"
      ],
      [
        "ĠO",
        "r"
      ],
      [
        "Ġci",
        "udad"
      ],
      [
        "ti",
        "do"
      ],
      [
        "ĠC",
        "al"
      ],
      [
        "Ġsu",
        "per"
      ],
      [
        "tam",
        "ente"
      ],
      [
        "Ġnuev",
        "o"
      ],
      [
        "om",
        "e"
      ],
      [
        "er",
        "n"
      ],
      [
        "Ġtr",
        "as"
      ],
      [
        "ej",
        "a"
      ],
      [
        "Ġde",
        "f"
      ],
      [
        "re",
        "e"
      ],
      [
        "ĠG",
        "ran"
      ],
      [
        "3",
        "0"
      ],
      [
        "Ġres",
        "ul"
      ],
      [
        "un",
        "d"
      ],
      [
        "Ġm",
        "on"
      ],
      [
        "ĠD",
        "i"
      ],
      [
        "Ġmen",
        "os"
      ],
      [
        "Ġinform",
        "aciÃ³n"
      ],
      [
        "Ġh",
        "i"
      ],
      [
        "ier",
        "no"
      ],
      [
        "ĠP",
        "re"
      ],
      [
        "Ġp",
        "i"
      ],
      [
        "ar",
        "Ã¡"
      ],
      [
        "ar",
        "se"
      ],
      [
        "Ġde",
        "j"
      ],
      [
        "oc",
        "er"
      ],
      [
        "ĠM",
        "an"
      ],
      [
        "âĢĿ",
        "."
      ],
      [
        "pu",
        "Ã©s"
      ],
      [
        "ci",
        "ales"
      ],
      [
        "Ġal",
        "go"
      ],
      [
        "R",
        "E"
      ],
      [
        "Ġqu",
        "ien"
      ],
      [
        "y",
        "a"
      ],
      [
        "un",
        "que"
      ],
      [
        "Ġex",
        "per"
      ],
      [
        "Ġop",
        "in"
      ],
      [
        "Ġ",
        "era"
      ],
      [
        "Ġcas",
        "o"
      ],
      [
        "ĠB",
        "us"
      ],
      [
        "Ġ1",
        "7"
      ],
      [
        "i",
        "or"
      ],
      [
        "E",
        "s"
      ],
      [
        "ĠL",
        "A"
      ],
      [
        "Ġs",
        "im"
      ],
      [
        "om",
        "in"
      ],
      [
        "ador",
        "a"
      ],
      [
        "ĠR",
        "o"
      ],
      [
        "R",
        "O"
      ],
      [
        "u",
        "ciÃ³n"
      ],
      [
        "Ġc",
        "r"
      ],
      [
        "Ġ",
        "$"
      ],
      [
        "ue",
        "gos"
      ],
      [
        "Ġte",
        "m"
      ],
      [
        "a",
        "pa"
      ],
      [
        "ĠP",
        "u"
      ],
      [
        "Ġo",
        "tro"
      ],
      [
        "Ġsi",
        "do"
      ],
      [
        "Ġv",
        "ar"
      ],
      [
        "ce",
        "p"
      ],
      [
        "Ġl",
        "lam"
      ],
      [
        "n",
        "e"
      ],
      [
        "u",
        "ir"
      ],
      [
        "Ġf",
        "amil"
      ],
      [
        "Ġes",
        "e"
      ],
      [
        "Ġm",
        "er"
      ],
      [
        "ĠV",
        "al"
      ],
      [
        "ac",
        "k"
      ],
      [
        "t",
        "ad"
      ],
      [
        "ĠM",
        "as"
      ],
      [
        "Ġutil",
        "iz"
      ],
      [
        "Ġel",
        "ec"
      ],
      [
        "iste",
        "ma"
      ],
      [
        "g",
        "res"
      ],
      [
        "Ġpue",
        "den"
      ],
      [
        "ar",
        "es"
      ],
      [
        "Ġto",
        "da"
      ],
      [
        "Ġa",
        "pl"
      ],
      [
        "ier",
        "on"
      ],
      [
        "Ġse",
        "c"
      ],
      [
        "Ġes",
        "tos"
      ],
      [
        "ĠU",
        "na"
      ],
      [
        "Ġpro",
        "ble"
      ],
      [
        "s",
        "a"
      ],
      [
        "f",
        "ici"
      ],
      [
        "lo",
        "g"
      ],
      [
        "Ġac",
        "tiv"
      ],
      [
        "n",
        "et"
      ],
      [
        "Ġprof",
        "es"
      ],
      [
        "Ġpo",
        "co"
      ],
      [
        "ĠÂ",
        "¡"
      ],
      [
        "Ġti",
        "po"
      ],
      [
        "R",
        "A"
      ],
      [
        "Ġes",
        "p"
      ],
      [
        "Ġse",
        "a"
      ],
      [
        "en",
        "o"
      ],
      [
        "Ġcual",
        "quier"
      ],
      [
        "ĠP",
        "o"
      ],
      [
        "Ġto",
        "das"
      ],
      [
        "Ġv",
        "ia"
      ],
      [
        "Ġn",
        "eg"
      ],
      [
        "Â",
        "»"
      ],
      [
        "Ġb",
        "a"
      ],
      [
        "ĠP",
        "er"
      ],
      [
        "Ġpu",
        "tas"
      ],
      [
        "Ġcas",
        "a"
      ],
      [
        "Ġm",
        "al"
      ],
      [
        "Ġv",
        "a"
      ],
      [
        "g",
        "as"
      ],
      [
        "Ġa",
        "f"
      ],
      [
        "Ġqu",
        "Ã©"
      ],
      [
        "Ġa",
        "par"
      ],
      [
        "Ġp",
        "ubl"
      ],
      [
        "Ã¡",
        "m"
      ],
      [
        "Ġ",
        "er"
      ],
      [
        "t",
        "ÃŃcul"
      ],
      [
        "oll",
        "ando"
      ],
      [
        "te",
        "c"
      ],
      [
        "il",
        "e"
      ],
      [
        "u",
        "ales"
      ],
      [
        "T",
        "O"
      ],
      [
        "Ġd",
        "ÃŃas"
      ],
      [
        "ed",
        "a"
      ],
      [
        "1",
        "5"
      ],
      [
        "p",
        "ara"
      ],
      [
        "ĠÂ",
        "«"
      ],
      [
        "el",
        "l"
      ],
      [
        "Ġmom",
        "ento"
      ],
      [
        "ĠS",
        "o"
      ],
      [
        "ur",
        "os"
      ],
      [
        "\"",
        ","
      ],
      [
        "is",
        "tr"
      ],
      [
        "Ġh",
        "um"
      ],
      [
        "ien",
        "cia"
      ],
      [
        "Ġ3",
        "0"
      ],
      [
        "Ġh",
        "e"
      ],
      [
        "Ġen",
        "tr"
      ],
      [
        "Ġt",
        "el"
      ],
      [
        "Ġca",
        "p"
      ],
      [
        "is",
        "ten"
      ],
      [
        "Ġpro",
        "yec"
      ],
      [
        "ue",
        "la"
      ],
      [
        "Ġau",
        "to"
      ],
      [
        "teri",
        "or"
      ],
      [
        "Ġch",
        "icas"
      ],
      [
        "T",
        "I"
      ],
      [
        "i",
        "te"
      ],
      [
        "Ġah",
        "ora"
      ],
      [
        "Ġ",
        "'"
      ],
      [
        "v",
        "ar"
      ],
      [
        "a",
        "te"
      ],
      [
        "qu",
        "ÃŃ"
      ],
      [
        "iv",
        "el"
      ],
      [
        "gra",
        "f"
      ],
      [
        "Ġs",
        "an"
      ],
      [
        "p",
        "lo"
      ],
      [
        "Ġp",
        "ag"
      ],
      [
        "us",
        "o"
      ],
      [
        "er",
        "as"
      ],
      [
        "tiv",
        "as"
      ],
      [
        "ĠS",
        "eg"
      ],
      [
        "Ġor",
        "gan"
      ],
      [
        "Ġ201",
        "7"
      ],
      [
        "ĠS",
        "in"
      ],
      [
        "Ġse",
        "m"
      ],
      [
        "ĠM",
        "on"
      ],
      [
        "Ġp",
        "Ãºbl"
      ],
      [
        "Ġan",
        "tes"
      ],
      [
        "O",
        "M"
      ],
      [
        "1",
        "8"
      ],
      [
        "ĠEs",
        "ta"
      ],
      [
        "i",
        "tos"
      ],
      [
        "ĠQ",
        "u"
      ],
      [
        "Ġpol",
        "ÃŃ"
      ],
      [
        "oo",
        "k"
      ],
      [
        "Ġnues",
        "tro"
      ],
      [
        "ĠQ",
        "ue"
      ],
      [
        "ol",
        "lo"
      ],
      [
        "er",
        "g"
      ],
      [
        "ob",
        "ierno"
      ],
      [
        "tur",
        "al"
      ],
      [
        "U",
        "E"
      ],
      [
        "om",
        "o"
      ],
      [
        "Ġ",
        "ir"
      ],
      [
        "Ġmu",
        "jer"
      ],
      [
        "ĠE",
        "N"
      ],
      [
        "er",
        "ÃŃa"
      ],
      [
        "Ġ",
        "ide"
      ],
      [
        "ĠC",
        "an"
      ],
      [
        "c",
        "ol"
      ],
      [
        "Ġtien",
        "en"
      ],
      [
        "Ã¡",
        "g"
      ],
      [
        "us",
        "tr"
      ],
      [
        "Ġprim",
        "era"
      ],
      [
        "v",
        "al"
      ],
      [
        "Ġman",
        "era"
      ],
      [
        "Ġtr",
        "es"
      ],
      [
        "ĠD",
        "el"
      ],
      [
        "Ġse",
        "gun"
      ],
      [
        "Ġpo",
        "der"
      ],
      [
        "qu",
        "il"
      ],
      [
        "iv",
        "o"
      ],
      [
        "b",
        "ol"
      ],
      [
        "Ġde",
        "re"
      ],
      [
        "Ġpro",
        "gra"
      ],
      [
        "j",
        "as"
      ],
      [
        "ĠS",
        "ol"
      ],
      [
        "ud",
        "as"
      ],
      [
        "c",
        "ri"
      ],
      [
        "ĠEs",
        "te"
      ],
      [
        "Ġmej",
        "ores"
      ],
      [
        "Ġsu",
        "b"
      ],
      [
        "aj",
        "a"
      ],
      [
        "Ã¡",
        "l"
      ],
      [
        "p",
        "r"
      ],
      [
        "Ġ2",
        "4"
      ],
      [
        "im",
        "os"
      ],
      [
        "Ã³",
        "g"
      ],
      [
        "f",
        "orm"
      ],
      [
        "p",
        "ro"
      ],
      [
        "Ġ201",
        "8"
      ],
      [
        "y",
        "o"
      ],
      [
        "ĠL",
        "u"
      ],
      [
        "Ġb",
        "an"
      ],
      [
        "1",
        "6"
      ],
      [
        "Ġg",
        "ru"
      ],
      [
        "Ã",
        "ĵ"
      ],
      [
        "am",
        "a"
      ],
      [
        "Ġo",
        "tra"
      ],
      [
        "L",
        "a"
      ],
      [
        "Ġd",
        "ar"
      ],
      [
        "Ġ201",
        "6"
      ],
      [
        "Ġob",
        "je"
      ],
      [
        "ĠP",
        "ero"
      ],
      [
        "ti",
        "o"
      ],
      [
        "i",
        "an"
      ],
      [
        "Ġper",
        "mi"
      ],
      [
        "ĠJ",
        "u"
      ],
      [
        "Ġ2",
        "2"
      ],
      [
        "ĠE",
        "m"
      ],
      [
        "Ġin",
        "ten"
      ],
      [
        "O",
        "L"
      ],
      [
        "1",
        "4"
      ],
      [
        "Ġpe",
        "que"
      ],
      [
        "Ġnues",
        "tra"
      ],
      [
        "Ġc",
        "el"
      ],
      [
        "l",
        "or"
      ],
      [
        "Ġh",
        "oy"
      ],
      [
        "Ãº",
        "m"
      ],
      [
        "Ã¡",
        "c"
      ],
      [
        "Ġh",
        "otel"
      ],
      [
        "c",
        "ado"
      ],
      [
        "Ġp",
        "al"
      ],
      [
        "un",
        "a"
      ],
      [
        "Ġres",
        "pon"
      ],
      [
        "v",
        "es"
      ],
      [
        "Ġh",
        "echo"
      ],
      [
        "b",
        "io"
      ],
      [
        "Ġcom",
        "er"
      ],
      [
        "in",
        "os"
      ],
      [
        "Ġdeci",
        "r"
      ],
      [
        "por",
        "t"
      ],
      [
        "iden",
        "te"
      ],
      [
        "âĢ",
        "Ļ"
      ],
      [
        "Ġam",
        "b"
      ],
      [
        "Ġsig",
        "u"
      ],
      [
        "Ġb",
        "ar"
      ],
      [
        "Ġ",
        "ig"
      ],
      [
        "d",
        "io"
      ],
      [
        "Ġdo",
        "c"
      ],
      [
        "ur",
        "idad"
      ],
      [
        "ĠCon",
        "s"
      ],
      [
        "ĠP",
        "el"
      ],
      [
        "b",
        "an"
      ],
      [
        "paÃ±",
        "ol"
      ],
      [
        "Ġe",
        "fec"
      ],
      [
        "Ġa",
        "g"
      ],
      [
        "s",
        "os"
      ],
      [
        "1",
        "3"
      ],
      [
        "Ġe",
        "con"
      ],
      [
        "ĠCh",
        "icas"
      ],
      [
        "Ġtrav",
        "Ã©s"
      ],
      [
        "Ġn",
        "ivel"
      ],
      [
        "Ġn",
        "ada"
      ],
      [
        "Ġdes",
        "puÃ©s"
      ],
      [
        "ul",
        "a"
      ],
      [
        "ĠEs",
        "paÃ±a"
      ],
      [
        "Ġest",
        "ado"
      ],
      [
        "Ġs",
        "Ã³lo"
      ],
      [
        "e",
        "ta"
      ],
      [
        "icul",
        "as"
      ],
      [
        "c",
        "en"
      ],
      [
        "ĠB",
        "o"
      ],
      [
        "tor",
        "io"
      ],
      [
        "i",
        "re"
      ],
      [
        "Ġsi",
        "tu"
      ],
      [
        "2",
        "2"
      ],
      [
        "Ġm",
        "ill"
      ],
      [
        "Ġp",
        "ens"
      ],
      [
        "Ġc",
        "Ã³mo"
      ],
      [
        "re",
        "a"
      ],
      [
        "ten",
        "er"
      ],
      [
        "Ġes",
        "a"
      ],
      [
        "tam",
        "iento"
      ],
      [
        "Ġan",
        "te"
      ],
      [
        "Ġo",
        "tras"
      ],
      [
        "ĠT",
        "e"
      ],
      [
        "ter",
        "a"
      ],
      [
        "ica",
        "ciones"
      ],
      [
        "ar",
        "ia"
      ],
      [
        "ed",
        "ia"
      ],
      [
        "ĠE",
        "S"
      ],
      [
        "que",
        "l"
      ],
      [
        "Ġse",
        "Ã±"
      ],
      [
        "ĠP",
        "ol"
      ],
      [
        "Ġ2",
        "5"
      ],
      [
        "A",
        "M"
      ],
      [
        "en",
        "e"
      ],
      [
        "Ġex",
        "pl"
      ],
      [
        "Ġcon",
        "tin"
      ],
      [
        "Ġencon",
        "trar"
      ],
      [
        "pan",
        "ol"
      ],
      [
        "Ġgran",
        "des"
      ],
      [
        "Ġdeb",
        "e"
      ],
      [
        "Ġt",
        "al"
      ],
      [
        "ĠCom",
        "o"
      ],
      [
        "1",
        "7"
      ],
      [
        "E",
        "L"
      ],
      [
        "Ġc",
        "ara"
      ],
      [
        "Ġh",
        "ombre"
      ],
      [
        "Ġcu",
        "m"
      ],
      [
        "Ġap",
        "ro"
      ],
      [
        "ĠW",
        "eb"
      ],
      [
        "g",
        "ent"
      ],
      [
        "Ġespe",
        "cial"
      ],
      [
        "por",
        "te"
      ],
      [
        "Ġd",
        "ic"
      ],
      [
        "el",
        "ec"
      ],
      [
        "ci",
        "do"
      ],
      [
        "ĠD",
        "is"
      ],
      [
        "Ġhor",
        "as"
      ],
      [
        "Ġinter",
        "es"
      ],
      [
        "Ġv",
        "i"
      ],
      [
        "Ġc",
        "ur"
      ],
      [
        "ĠC",
        "a"
      ],
      [
        "ien",
        "tras"
      ],
      [
        "il",
        "lo"
      ],
      [
        "Ġcal",
        "idad"
      ],
      [
        "Ġprim",
        "er"
      ],
      [
        "Ġ2",
        "3"
      ],
      [
        "Ġj",
        "un"
      ],
      [
        "im",
        "a"
      ],
      [
        "cion",
        "ales"
      ],
      [
        "Ġch",
        "at"
      ],
      [
        "2",
        "00"
      ],
      [
        "Ġcon",
        "oci"
      ],
      [
        "Ġp",
        "an"
      ],
      [
        "x",
        "ico"
      ],
      [
        "de",
        "ra"
      ],
      [
        "ĠBar",
        "celona"
      ],
      [
        "Ġun",
        "os"
      ],
      [
        "Ġon",
        "line"
      ],
      [
        "ÃŃn",
        "ea"
      ],
      [
        "Ġg",
        "an"
      ],
      [
        "ĠV",
        "ideo"
      ],
      [
        "Ġel",
        "los"
      ],
      [
        "ar",
        "an"
      ],
      [
        "ig",
        "os"
      ],
      [
        "Ġc",
        "ier"
      ],
      [
        "Ġdis",
        "pon"
      ],
      [
        "2",
        "4"
      ],
      [
        "Ġnuev",
        "a"
      ],
      [
        "z",
        "as"
      ],
      [
        "Ġmed",
        "io"
      ],
      [
        "ĠP",
        "ubl"
      ],
      [
        "e",
        "p"
      ],
      [
        "Ġs",
        "istema"
      ],
      [
        "or",
        "n"
      ],
      [
        "Ġa",
        "unque"
      ],
      [
        "ci",
        "miento"
      ],
      [
        "Ġ2",
        "1"
      ],
      [
        "Ġa",
        "ten"
      ],
      [
        "Ã©",
        "cn"
      ],
      [
        "is",
        "o"
      ],
      [
        "Ġg",
        "ente"
      ],
      [
        "Ġcom",
        "entar"
      ],
      [
        "Ġes",
        "tas"
      ],
      [
        "Ġque",
        "d"
      ],
      [
        "Ġtr",
        "ad"
      ],
      [
        "Ġab",
        "r"
      ],
      [
        "Ġorgan",
        "iz"
      ],
      [
        "E",
        "C"
      ],
      [
        "Ġb",
        "o"
      ],
      [
        "ĠM",
        "i"
      ],
      [
        "ig",
        "h"
      ],
      [
        "Ġim",
        "ag"
      ],
      [
        "\"",
        "."
      ],
      [
        "ĠG",
        "ra"
      ],
      [
        "Ġequi",
        "po"
      ],
      [
        "Ġ",
        "+"
      ],
      [
        "ĠF",
        "otos"
      ],
      [
        "Ġj",
        "u"
      ],
      [
        "av",
        "or"
      ],
      [
        "olog",
        "ÃŃa"
      ],
      [
        "v",
        "ia"
      ],
      [
        "Ġ",
        "os"
      ],
      [
        "ci",
        "s"
      ],
      [
        "Ġcos",
        "as"
      ],
      [
        "p",
        "en"
      ],
      [
        "Ġl",
        "ar"
      ],
      [
        "ĠM",
        "un"
      ],
      [
        "ĠZ",
        "apa"
      ],
      [
        "Ġesta",
        "ble"
      ],
      [
        "Ġam",
        "or"
      ],
      [
        "ĠC",
        "en"
      ],
      [
        "ĠP",
        "la"
      ],
      [
        "Ġto",
        "tal"
      ],
      [
        "uer",
        "do"
      ],
      [
        "eb",
        "r"
      ],
      [
        "ĠX",
        "xx"
      ],
      [
        "Ġestu",
        "di"
      ],
      [
        "ib",
        "u"
      ],
      [
        "Ġempres",
        "a"
      ],
      [
        "Ġ201",
        "5"
      ],
      [
        "I",
        "A"
      ],
      [
        "ĠE",
        "L"
      ],
      [
        "Ġda",
        "tos"
      ],
      [
        "Ġhab",
        "ÃŃa"
      ],
      [
        "ĠY",
        "o"
      ],
      [
        "ĠI",
        "N"
      ],
      [
        "m",
        "Ã¡"
      ],
      [
        "Ġca",
        "pa"
      ],
      [
        "im",
        "o"
      ],
      [
        "Ġg",
        "ay"
      ],
      [
        "Q",
        "u"
      ],
      [
        "ol",
        "lar"
      ],
      [
        "t",
        "y"
      ],
      [
        "un",
        "cios"
      ],
      [
        "Ġe",
        "di"
      ],
      [
        "Ġpre",
        "cio"
      ],
      [
        "di",
        "do"
      ],
      [
        "Ġa",
        "gua"
      ],
      [
        "ab",
        "les"
      ],
      [
        "Ġl",
        "im"
      ],
      [
        "ĠUn",
        "ivers"
      ],
      [
        "Ġc",
        "las"
      ],
      [
        "ĠH",
        "otel"
      ],
      [
        "Ġcon",
        "v"
      ],
      [
        "ĠM",
        "Ã©"
      ],
      [
        "ti",
        "dad"
      ],
      [
        "Ġ",
        "="
      ],
      [
        "ĠF",
        "ran"
      ],
      [
        "Ġ",
        "i"
      ],
      [
        "ul",
        "l"
      ],
      [
        "Ġmill",
        "ones"
      ],
      [
        "ĠMu",
        "jer"
      ],
      [
        "ej",
        "as"
      ],
      [
        "r",
        "on"
      ],
      [
        "Ġsin",
        "o"
      ],
      [
        "Ġser",
        "Ã¡"
      ],
      [
        "Ġej",
        "em"
      ],
      [
        "Ġcons",
        "ide"
      ],
      [
        "2",
        "5"
      ],
      [
        "Ġp",
        "un"
      ],
      [
        "Ġdis",
        "e"
      ],
      [
        "U",
        "R"
      ],
      [
        "tu",
        "ras"
      ],
      [
        "Ġpre",
        "cios"
      ],
      [
        "ĠN",
        "uev"
      ],
      [
        "Ġ201",
        "9"
      ],
      [
        "ĠCon",
        "tactos"
      ],
      [
        "Ġv",
        "enta"
      ],
      [
        "r",
        "Ã¡"
      ],
      [
        "l",
        "u"
      ],
      [
        "Ġd",
        "in"
      ],
      [
        "is",
        "iÃ³n"
      ],
      [
        "ig",
        "a"
      ],
      [
        "ĠIn",
        "s"
      ],
      [
        "I",
        "L"
      ],
      [
        "Ġ201",
        "2"
      ],
      [
        "Ġv",
        "eces"
      ],
      [
        "Ġau",
        "tor"
      ],
      [
        "ĠR",
        "eg"
      ],
      [
        "do",
        "les"
      ],
      [
        "Ġimpor",
        "tante"
      ],
      [
        "Ġ",
        "is"
      ],
      [
        "Ġes",
        "per"
      ],
      [
        "ĠÃ©",
        "l"
      ],
      [
        "Ġhis",
        "toria"
      ],
      [
        "Ġmuch",
        "os"
      ],
      [
        "om",
        "a"
      ],
      [
        "es",
        "t"
      ],
      [
        "ww",
        "w"
      ],
      [
        "el",
        "o"
      ],
      [
        "Ġpas",
        "ado"
      ],
      [
        "ech",
        "a"
      ],
      [
        "Ãĵ",
        "N"
      ],
      [
        "Ġâ",
        "Ĥ¬"
      ],
      [
        "Ġfin",
        "al"
      ],
      [
        "v",
        "ol"
      ],
      [
        "enta",
        "ciÃ³n"
      ],
      [
        "Ġs",
        "ÃŃ"
      ],
      [
        "Ġor",
        "ig"
      ],
      [
        "Ġ201",
        "3"
      ],
      [
        "Ġtu",
        "s"
      ],
      [
        "Ġade",
        "mÃ¡s"
      ],
      [
        "f",
        "a"
      ],
      [
        "Ġlle",
        "g"
      ],
      [
        "Ġso",
        "cial"
      ],
      [
        "Ġcon",
        "ocer"
      ],
      [
        "Ġa",
        "quel"
      ],
      [
        "ti",
        "m"
      ],
      [
        "tÃŃcul",
        "o"
      ],
      [
        "o",
        "tros"
      ],
      [
        "ÃŃ",
        "f"
      ],
      [
        "Ġh",
        "ombres"
      ],
      [
        "i",
        "ar"
      ],
      [
        "Ġdi",
        "jo"
      ],
      [
        "E",
        "D"
      ],
      [
        "r",
        "ado"
      ],
      [
        "un",
        "ci"
      ],
      [
        "in",
        "al"
      ],
      [
        "Ġserv",
        "icios"
      ],
      [
        "ici",
        "p"
      ],
      [
        "U",
        "S"
      ],
      [
        "ĠJ",
        "os"
      ],
      [
        "p",
        "h"
      ],
      [
        "ĠA",
        "u"
      ],
      [
        "3",
        "3"
      ],
      [
        "ĠB",
        "uen"
      ],
      [
        "Ġ",
        "Ãºn"
      ],
      [
        "A",
        "CI"
      ],
      [
        "Ġfun",
        "cion"
      ],
      [
        "pues",
        "ta"
      ],
      [
        "ĠC",
        "ON"
      ],
      [
        "ĠNa",
        "cional"
      ],
      [
        "t",
        "Ã¡"
      ],
      [
        "Ġes",
        "paÃ±ol"
      ],
      [
        "Ġf",
        "avor"
      ],
      [
        "Ġim",
        "p"
      ],
      [
        "ĠT",
        "he"
      ],
      [
        "Ġprofes",
        "ion"
      ],
      [
        "I",
        "n"
      ],
      [
        "Ġpor",
        "n"
      ],
      [
        "tan",
        "cia"
      ],
      [
        "ĠC",
        "l"
      ],
      [
        "Ġcontr",
        "ol"
      ],
      [
        "Ġserv",
        "icio"
      ],
      [
        "Ġus",
        "o"
      ],
      [
        "Ã±",
        "as"
      ],
      [
        "Ġ201",
        "4"
      ],
      [
        "iv",
        "e"
      ],
      [
        "v",
        "in"
      ],
      [
        "ar",
        "e"
      ],
      [
        "Ġalgun",
        "os"
      ],
      [
        "Ã³",
        "s"
      ],
      [
        "Ġdes",
        "c"
      ],
      [
        "Ġsal",
        "ud"
      ],
      [
        "Ġk",
        "m"
      ],
      [
        "doles",
        "c"
      ],
      [
        "E",
        "n"
      ],
      [
        "ĠA",
        "de"
      ],
      [
        "ab",
        "or"
      ],
      [
        "Ġre",
        "pres"
      ],
      [
        "Ġt",
        "h"
      ],
      [
        "Ġcom",
        "par"
      ],
      [
        "Ġpos",
        "ible"
      ],
      [
        "a",
        "tro"
      ],
      [
        "du",
        "ci"
      ],
      [
        "Ġf",
        "ollando"
      ],
      [
        "ĠP",
        "e"
      ],
      [
        "Ġmo",
        "de"
      ],
      [
        "4",
        "0"
      ],
      [
        "Ġ",
        ">"
      ],
      [
        "Ġproduc",
        "tos"
      ],
      [
        "or",
        "t"
      ],
      [
        "9",
        "9"
      ],
      [
        "ĠP",
        "res"
      ],
      [
        "Ġo",
        "c"
      ],
      [
        "ĠN",
        "eg"
      ],
      [
        "Ġ1",
        "00"
      ],
      [
        "p",
        "ren"
      ],
      [
        "Ġmad",
        "uras"
      ],
      [
        "Ġem",
        "bar"
      ],
      [
        "Ġa",
        "quÃŃ"
      ],
      [
        "m",
        "ent"
      ],
      [
        "Ġes",
        "tr"
      ],
      [
        "Ġperson",
        "a"
      ],
      [
        "Ġes",
        "pa"
      ],
      [
        "Ġpre",
        "gun"
      ],
      [
        "p",
        "ti"
      ],
      [
        "ul",
        "io"
      ],
      [
        "n",
        "if"
      ],
      [
        "ab",
        "r"
      ],
      [
        "Ġn",
        "Ãºm"
      ],
      [
        "ĠM",
        "in"
      ],
      [
        "Ġ",
        "&"
      ],
      [
        "pues",
        "to"
      ],
      [
        "tu",
        "d"
      ],
      [
        "ci",
        "dad"
      ],
      [
        "ac",
        "er"
      ],
      [
        "Ġni",
        "Ã±os"
      ],
      [
        "ĠT",
        "am"
      ],
      [
        "iv",
        "a"
      ],
      [
        "Ġc",
        "in"
      ],
      [
        "g",
        "er"
      ],
      [
        "n",
        "es"
      ],
      [
        "u",
        "p"
      ],
      [
        "Ġinv",
        "esti"
      ],
      [
        "Ġj",
        "ug"
      ],
      [
        "Ġhab",
        "ita"
      ],
      [
        ".",
        "-"
      ],
      [
        "is",
        "t"
      ],
      [
        "Ġn",
        "ing"
      ],
      [
        "U",
        "N"
      ],
      [
        "ĠL",
        "ib"
      ],
      [
        "Ġd",
        "iv"
      ],
      [
        "Ġgra",
        "cias"
      ],
      [
        "de",
        "d"
      ],
      [
        "os",
        "a"
      ],
      [
        "Ġl",
        "eg"
      ],
      [
        "Ġden",
        "tro"
      ],
      [
        "Ã³",
        "r"
      ],
      [
        "I",
        "B"
      ],
      [
        "Ġperson",
        "al"
      ],
      [
        "de",
        "mos"
      ],
      [
        "w",
        "s"
      ],
      [
        "Ġm",
        "Ã©"
      ],
      [
        "Ġb",
        "r"
      ],
      [
        "Ġgener",
        "al"
      ],
      [
        "y",
        "s"
      ],
      [
        "ĠM",
        "Ã¡s"
      ],
      [
        "Ġmed",
        "i"
      ],
      [
        "Ġm",
        "ientras"
      ],
      [
        "e",
        "as"
      ],
      [
        "Ġdifer",
        "entes"
      ],
      [
        "ĠPu",
        "tas"
      ],
      [
        "Ġe",
        "t"
      ],
      [
        "ag",
        "a"
      ],
      [
        "Ġdes",
        "car"
      ],
      [
        "Ġcon",
        "ten"
      ],
      [
        "Ġs",
        "ue"
      ],
      [
        "Ã©",
        "c"
      ],
      [
        "2",
        "3"
      ],
      [
        "Ġel",
        "la"
      ],
      [
        "ĠM",
        "or"
      ],
      [
        "Ġre",
        "con"
      ],
      [
        "Ġopin",
        "iones"
      ],
      [
        "6",
        "0"
      ],
      [
        "Ġa",
        "po"
      ],
      [
        "Ã¡",
        "p"
      ],
      [
        "Ġseg",
        "Ãºn"
      ],
      [
        "ici",
        "al"
      ],
      [
        "tr",
        "an"
      ],
      [
        "f",
        "ru"
      ],
      [
        "Ġg",
        "as"
      ],
      [
        "Ġa",
        "le"
      ],
      [
        "Ġay",
        "ud"
      ],
      [
        "k",
        "e"
      ],
      [
        "Ġnues",
        "tros"
      ],
      [
        "Ã",
        "į"
      ],
      [
        "Ġbuen",
        "a"
      ],
      [
        "Ġlle",
        "gar"
      ],
      [
        "ĠM",
        "ej"
      ],
      [
        "ens",
        "a"
      ],
      [
        "on",
        "as"
      ],
      [
        "Ġha",
        "cia"
      ],
      [
        "b",
        "les"
      ],
      [
        "it",
        "y"
      ],
      [
        "8",
        "0"
      ],
      [
        "Ġle",
        "y"
      ],
      [
        "f",
        "r"
      ],
      [
        "z",
        "Ã³n"
      ],
      [
        "tac",
        "to"
      ],
      [
        "ĠâĢ",
        "¢"
      ],
      [
        "ĠÂ",
        "»"
      ],
      [
        "Ġpro",
        "ceso"
      ],
      [
        "i",
        "el"
      ],
      [
        "f",
        "f"
      ],
      [
        "Ġmuch",
        "as"
      ],
      [
        "ĠO",
        "n"
      ],
      [
        "Ġsem",
        "ana"
      ],
      [
        "Ġmin",
        "u"
      ],
      [
        "ĠG",
        "ay"
      ],
      [
        "ĠM",
        "ed"
      ],
      [
        "ĠN",
        "e"
      ],
      [
        "--",
        "--"
      ],
      [
        "i",
        "cia"
      ],
      [
        "Ġre",
        "com"
      ],
      [
        "Ġm",
        "or"
      ],
      [
        "Ġ",
        "ol"
      ],
      [
        "Ġcontin",
        "u"
      ],
      [
        "ĠJ",
        "o"
      ],
      [
        "dos",
        "e"
      ],
      [
        "ĠMÃ©",
        "xico"
      ],
      [
        "b",
        "as"
      ],
      [
        "Ġus",
        "u"
      ],
      [
        "Ġf",
        "oto"
      ],
      [
        "Ġan",
        "ti"
      ],
      [
        "ci",
        "na"
      ],
      [
        "on",
        "e"
      ],
      [
        "p",
        "as"
      ],
      [
        "Ġcom",
        "paÃ±"
      ],
      [
        ")",
        ";"
      ],
      [
        "ib",
        "les"
      ],
      [
        "ch",
        "os"
      ],
      [
        "Ġmes",
        "es"
      ],
      [
        "ĠT",
        "r"
      ],
      [
        "Ġgru",
        "po"
      ],
      [
        "cri",
        "p"
      ],
      [
        "Ġempres",
        "as"
      ],
      [
        "ĠT",
        "or"
      ],
      [
        "Ġre",
        "cor"
      ],
      [
        "Ġ2",
        "7"
      ],
      [
        "Â",
        "°"
      ],
      [
        "2",
        "7"
      ],
      [
        "Ġins",
        "tal"
      ],
      [
        "at",
        "al"
      ],
      [
        "f",
        "o"
      ],
      [
        "Ġne",
        "go"
      ],
      [
        "Ġig",
        "ual"
      ],
      [
        "ĠÃ",
        "ģ"
      ],
      [
        "Ġz",
        "ona"
      ],
      [
        "ib",
        "ilidad"
      ],
      [
        "A",
        "C"
      ],
      [
        "Ġcu",
        "er"
      ],
      [
        "Ġembar",
        "go"
      ],
      [
        "Ġm",
        "Ã¡"
      ],
      [
        "Ġpel",
        "ÃŃcul"
      ],
      [
        "qu",
        "es"
      ],
      [
        "de",
        "l"
      ],
      [
        "h",
        "a"
      ],
      [
        "Ġin",
        "m"
      ],
      [
        "Ġf",
        "il"
      ],
      [
        "Ġb",
        "ajo"
      ],
      [
        "ĠR",
        "ec"
      ],
      [
        "ĠT",
        "el"
      ],
      [
        "ab",
        "an"
      ],
      [
        "ien",
        "e"
      ],
      [
        "ma",
        "te"
      ],
      [
        "Ġt",
        "or"
      ],
      [
        "re",
        "g"
      ],
      [
        "Ġb",
        "en"
      ],
      [
        "te",
        "m"
      ],
      [
        "Ġb",
        "ol"
      ],
      [
        "Ġf",
        "Ã¡"
      ],
      [
        "Ġj",
        "uegos"
      ],
      [
        "Ġd",
        "ir"
      ],
      [
        "Ġre",
        "d"
      ],
      [
        "Ġla",
        "b"
      ],
      [
        "Ġ2",
        "8"
      ],
      [
        "p",
        "el"
      ],
      [
        "Ġcomp",
        "r"
      ],
      [
        "Ġpr",
        "Ã³"
      ],
      [
        "Ġa",
        "t"
      ],
      [
        "pos",
        "i"
      ],
      [
        "2",
        "6"
      ],
      [
        "Ġ2",
        "6"
      ],
      [
        "bi",
        "anas"
      ],
      [
        "Ġes",
        "pec"
      ],
      [
        "c",
        "k"
      ],
      [
        "u",
        "do"
      ],
      [
        "p",
        "la"
      ],
      [
        "f",
        "t"
      ],
      [
        "Ġj",
        "o"
      ],
      [
        "ĠJu",
        "an"
      ],
      [
        "Ġejem",
        "plo"
      ],
      [
        "Ġan",
        "im"
      ],
      [
        "Ġtr",
        "i"
      ],
      [
        "Ġob",
        "s"
      ],
      [
        "er",
        "ic"
      ],
      [
        "Ġdesarr",
        "ollo"
      ],
      [
        "Ġt",
        "Ã©cn"
      ],
      [
        "2",
        "9"
      ],
      [
        "un",
        "ca"
      ],
      [
        "Ġper",
        "fec"
      ],
      [
        "Ġd",
        "ice"
      ],
      [
        "an",
        "ci"
      ],
      [
        "teg",
        "or"
      ],
      [
        "em",
        "b"
      ],
      [
        "2",
        "8"
      ],
      [
        "ci",
        "endo"
      ],
      [
        "ier",
        "a"
      ],
      [
        "v",
        "el"
      ],
      [
        "4",
        "4"
      ],
      [
        "t",
        "ada"
      ],
      [
        "esti",
        "Ã³n"
      ],
      [
        "I",
        "T"
      ],
      [
        "ti",
        "cias"
      ],
      [
        "is",
        "tro"
      ],
      [
        "g",
        "el"
      ],
      [
        "Ġ5",
        "0"
      ],
      [
        "N",
        "o"
      ],
      [
        "ĠÂ",
        "·"
      ],
      [
        "n",
        "as"
      ],
      [
        "ĠE",
        "uro"
      ],
      [
        "Ġv",
        "uel"
      ],
      [
        "Ġf",
        "a"
      ],
      [
        "Ġmis",
        "ma"
      ],
      [
        "ĠM",
        "ay"
      ],
      [
        "Ġseg",
        "uridad"
      ],
      [
        "Ġ",
        "*"
      ],
      [
        "Ġde",
        "tal"
      ],
      [
        "Ġm",
        "ol"
      ],
      [
        "Ġam",
        "pl"
      ],
      [
        "ol",
        "Ã³g"
      ],
      [
        "Ġval",
        "or"
      ],
      [
        "Ġj",
        "uego"
      ],
      [
        "Ġcen",
        "tro"
      ],
      [
        "en",
        "cias"
      ],
      [
        "na",
        "cional"
      ],
      [
        "0",
        "3"
      ],
      [
        "al",
        "e"
      ],
      [
        "Ġhab",
        "er"
      ],
      [
        "ic",
        "k"
      ],
      [
        "Ġb",
        "lan"
      ],
      [
        "c",
        "ter"
      ],
      [
        "m",
        "on"
      ],
      [
        "Ġof",
        "re"
      ],
      [
        "ĠT",
        "ran"
      ],
      [
        "Ġp",
        "unto"
      ],
      [
        "Ġqu",
        "er"
      ],
      [
        "Ġre",
        "c"
      ],
      [
        "Ġte",
        "cn"
      ],
      [
        "Ġal",
        "l"
      ],
      [
        "Ġpar",
        "eja"
      ],
      [
        "ul",
        "o"
      ],
      [
        "Ġm",
        "us"
      ],
      [
        "uer",
        "to"
      ],
      [
        "Ġproyec",
        "to"
      ],
      [
        "in",
        "es"
      ],
      [
        "Ġesta",
        "ba"
      ],
      [
        "ĠAde",
        "mÃ¡s"
      ],
      [
        "Ġdin",
        "ero"
      ],
      [
        "d",
        "ar"
      ],
      [
        "tin",
        "o"
      ],
      [
        "ti",
        "os"
      ],
      [
        "Ġp",
        "Ã¡g"
      ],
      [
        "ĠS",
        "erv"
      ],
      [
        "ers",
        "iÃ³n"
      ],
      [
        "ĠA",
        "b"
      ],
      [
        "0",
        "5"
      ],
      [
        "Ġel",
        "lo"
      ],
      [
        "Ġlle",
        "v"
      ],
      [
        "ra",
        "m"
      ],
      [
        "0",
        "7"
      ],
      [
        "pec",
        "to"
      ],
      [
        "Ġmu",
        "er"
      ],
      [
        "c",
        "ed"
      ],
      [
        "Ġac",
        "uerdo"
      ],
      [
        "Ġ201",
        "1"
      ],
      [
        "Ġten",
        "go"
      ],
      [
        "ĠprÃ³",
        "xim"
      ],
      [
        "g",
        "l"
      ],
      [
        "Ġa",
        "um"
      ],
      [
        "ici",
        "embre"
      ],
      [
        "ĠA",
        "le"
      ],
      [
        "Ġexper",
        "iencia"
      ],
      [
        "an",
        "to"
      ],
      [
        "p",
        "era"
      ],
      [
        "Ġm",
        "ens"
      ],
      [
        "ĠPubl",
        "icado"
      ],
      [
        "Ġca",
        "us"
      ],
      [
        "0",
        "4"
      ],
      [
        "Ġecon",
        "Ã³m"
      ],
      [
        "Ġf",
        "ac"
      ],
      [
        "Ġsab",
        "er"
      ],
      [
        "Ġl",
        "ÃŃnea"
      ],
      [
        "Ġcam",
        "bi"
      ],
      [
        "tu",
        "bre"
      ],
      [
        "ÃŃ",
        "tu"
      ],
      [
        "Ġl",
        "uego"
      ],
      [
        "bi",
        "do"
      ],
      [
        "Ġcon",
        "di"
      ],
      [
        "Ġf",
        "ree"
      ],
      [
        "Ġcer",
        "ca"
      ],
      [
        "Ġdis",
        "fru"
      ],
      [
        "Ġdes",
        "n"
      ],
      [
        "Ġesc",
        "ri"
      ],
      [
        "i",
        "x"
      ],
      [
        "vil",
        "la"
      ],
      [
        "al",
        "o"
      ],
      [
        "ĠEs",
        "tado"
      ],
      [
        "gent",
        "ina"
      ],
      [
        "Ġcol",
        "or"
      ],
      [
        "d",
        "ida"
      ],
      [
        "A",
        "T"
      ],
      [
        "Ġpal",
        "ab"
      ],
      [
        "it",
        "h"
      ],
      [
        "til",
        "las"
      ],
      [
        "ĠAn",
        "d"
      ],
      [
        "ĠDi",
        "rec"
      ],
      [
        "re",
        "o"
      ],
      [
        "ĠF",
        "or"
      ],
      [
        "0",
        "8"
      ],
      [
        "ig",
        "n"
      ],
      [
        "Ġfuer",
        "on"
      ],
      [
        "U",
        "L"
      ],
      [
        "Ġes",
        "ti"
      ],
      [
        "ti",
        "cia"
      ],
      [
        "Ġpel",
        "iculas"
      ],
      [
        "4",
        "5"
      ],
      [
        "Ġg",
        "en"
      ],
      [
        "ent",
        "al"
      ],
      [
        "Ġor",
        "den"
      ],
      [
        "Ã©",
        "f"
      ],
      [
        "Ġparti",
        "cip"
      ],
      [
        "Ġas",
        "eg"
      ],
      [
        "ĠnÃºm",
        "ero"
      ],
      [
        "ĠP",
        "ue"
      ],
      [
        "Ġre",
        "al"
      ],
      [
        "Ġap",
        "ren"
      ],
      [
        "C",
        "on"
      ],
      [
        "iz",
        "aciÃ³n"
      ],
      [
        "Ġn",
        "ombre"
      ],
      [
        "Ġre",
        "cur"
      ],
      [
        "ĠL",
        "es"
      ],
      [
        "Ġal",
        "im"
      ],
      [
        "eda",
        "des"
      ],
      [
        "or",
        "te"
      ],
      [
        "ĠS",
        "h"
      ],
      [
        "Ġna",
        "tural"
      ],
      [
        "Ġp",
        "m"
      ],
      [
        "Ġem",
        "ple"
      ],
      [
        "gen",
        "es"
      ],
      [
        "tu",
        "al"
      ],
      [
        "vi",
        "embre"
      ],
      [
        "ĠV",
        "en"
      ],
      [
        "Ġl",
        "ado"
      ],
      [
        "Ġan",
        "al"
      ],
      [
        "Ġh",
        "o"
      ],
      [
        "Ġcas",
        "i"
      ],
      [
        "Ġa",
        "tr"
      ],
      [
        "ĠG",
        "ar"
      ],
      [
        "Ġpue",
        "des"
      ],
      [
        "Ġm",
        "os"
      ],
      [
        "Ġnos",
        "otros"
      ],
      [
        "Ġrespon",
        "s"
      ],
      [
        "Ġh",
        "ora"
      ],
      [
        "Ġcam",
        "bio"
      ],
      [
        "u",
        "ch"
      ],
      [
        "Ġc",
        "ris"
      ],
      [
        "Ġrel",
        "aciÃ³n"
      ],
      [
        "duc",
        "aciÃ³n"
      ],
      [
        "Ġc",
        "ir"
      ],
      [
        "ĠP",
        "as"
      ],
      [
        "0",
        "9"
      ],
      [
        "Ġelec",
        "tr"
      ],
      [
        "pti",
        "embre"
      ],
      [
        "Ġfamil",
        "ia"
      ],
      [
        "Ġ",
        "ur"
      ],
      [
        "aliz",
        "aciÃ³n"
      ],
      [
        "er",
        "on"
      ],
      [
        "Ġsig",
        "nif"
      ],
      [
        "ĠC",
        "i"
      ],
      [
        "p",
        "end"
      ],
      [
        "ĠI",
        "s"
      ],
      [
        "iz",
        "o"
      ],
      [
        "Ġreci",
        "b"
      ],
      [
        "Ġad",
        "min"
      ],
      [
        "t",
        "ina"
      ],
      [
        "t",
        "ing"
      ],
      [
        "Ã¡m",
        "ara"
      ],
      [
        "E",
        "M"
      ],
      [
        "ton",
        "ces"
      ],
      [
        "z",
        "os"
      ],
      [
        "0",
        "6"
      ],
      [
        "Ġprogra",
        "ma"
      ],
      [
        "om",
        "os"
      ],
      [
        "Ġdoc",
        "um"
      ],
      [
        "........",
        "........"
      ],
      [
        "I",
        "O"
      ],
      [
        "__",
        "__"
      ],
      [
        "Ġof",
        "er"
      ],
      [
        "iz",
        "a"
      ],
      [
        "Ġp",
        "ad"
      ],
      [
        "Ġ",
        "il"
      ],
      [
        "Ġcum",
        "pl"
      ],
      [
        "Ġten",
        "dr"
      ],
      [
        "el",
        "la"
      ],
      [
        "Ġ2",
        "9"
      ],
      [
        "Ġp",
        "ed"
      ],
      [
        "3",
        "5"
      ],
      [
        "Ġs",
        "a"
      ],
      [
        "Ġsi",
        "tio"
      ],
      [
        "Ġpr",
        "iv"
      ],
      [
        "ir",
        "m"
      ],
      [
        "ĠB",
        "an"
      ],
      [
        "f",
        "il"
      ],
      [
        "ĠT",
        "er"
      ],
      [
        "il",
        "las"
      ],
      [
        "Ġdis",
        "tin"
      ],
      [
        "ĠP",
        "os"
      ],
      [
        "ĠU",
        "N"
      ],
      [
        "ĠG",
        "ener"
      ],
      [
        "qu",
        "is"
      ],
      [
        "Ġmer",
        "cado"
      ],
      [
        "s",
        "iÃ³n"
      ],
      [
        "ac",
        "a"
      ],
      [
        "ebr",
        "ero"
      ],
      [
        "z",
        "ado"
      ],
      [
        "Ã³",
        "vil"
      ],
      [
        "in",
        "i"
      ],
      [
        "un",
        "idad"
      ],
      [
        "Ġl",
        "ÃŃ"
      ],
      [
        "Ġma",
        "teri"
      ],
      [
        "en",
        "as"
      ],
      [
        "I",
        "I"
      ],
      [
        "ĠM",
        "il"
      ],
      [
        "p",
        "s"
      ],
      [
        "Ġcon",
        "tactos"
      ],
      [
        "Ġte",
        "ma"
      ],
      [
        "ci",
        "Ã³"
      ],
      [
        "em",
        "a"
      ],
      [
        "ter",
        "o"
      ],
      [
        "Ġimag",
        "en"
      ],
      [
        "Ġespe",
        "ci"
      ],
      [
        "Ġex",
        "pres"
      ],
      [
        "ti",
        "que"
      ],
      [
        "Ġg",
        "ol"
      ],
      [
        "Ġj",
        "us"
      ],
      [
        "ĠS",
        "er"
      ],
      [
        "g",
        "aciÃ³n"
      ],
      [
        "ti",
        "a"
      ],
      [
        "Ġpo",
        "d"
      ],
      [
        "Ġl",
        "ec"
      ],
      [
        "m",
        "en"
      ],
      [
        "w",
        "n"
      ],
      [
        "d",
        "an"
      ],
      [
        "Qu",
        "Ã©"
      ],
      [
        "Ġr",
        "Ã¡p"
      ],
      [
        "Ġ201",
        "0"
      ],
      [
        "s",
        "i"
      ],
      [
        "Ġ4",
        "0"
      ],
      [
        "Ġrealiz",
        "ar"
      ],
      [
        "Ġpar",
        "ece"
      ],
      [
        "ĠB",
        "ol"
      ],
      [
        "tan",
        "tes"
      ],
      [
        "ĠEs",
        "cor"
      ],
      [
        "3",
        "7"
      ],
      [
        "ĠTam",
        "biÃ©n"
      ],
      [
        "ĠâĢ",
        "ĺ"
      ],
      [
        "ð",
        "Ł"
      ],
      [
        "ĠR",
        "a"
      ],
      [
        "h",
        "er"
      ],
      [
        "Ġten",
        "emos"
      ],
      [
        "3",
        "8"
      ],
      [
        "Ġcom",
        "pe"
      ],
      [
        "ĠS",
        "ec"
      ],
      [
        "pos",
        "iciÃ³n"
      ],
      [
        "Ġlib",
        "er"
      ],
      [
        "Ġpres",
        "idente"
      ],
      [
        "Ġincl",
        "uy"
      ],
      [
        "am",
        "e"
      ],
      [
        "Ġb",
        "y"
      ],
      [
        "ec",
        "er"
      ],
      [
        "Ġc",
        "lar"
      ],
      [
        "ĠH",
        "er"
      ],
      [
        "Ġ",
        "ub"
      ],
      [
        "Ġproble",
        "mas"
      ],
      [
        "Ġfu",
        "era"
      ],
      [
        "fer",
        "encia"
      ],
      [
        "ĠP",
        "al"
      ],
      [
        "Ã¡",
        "b"
      ],
      [
        "ac",
        "ciÃ³n"
      ],
      [
        "Ġal",
        "ta"
      ],
      [
        "Ġn",
        "unca"
      ],
      [
        "ĠJ",
        "un"
      ],
      [
        "ĠJos",
        "Ã©"
      ],
      [
        "Ġmay",
        "o"
      ],
      [
        "in",
        "s"
      ],
      [
        "Ġr",
        "u"
      ],
      [
        "Ġtra",
        "ta"
      ],
      [
        "l",
        "io"
      ],
      [
        "Ġsigu",
        "iente"
      ],
      [
        "Ġter",
        "min"
      ],
      [
        "Ġsegu",
        "ir"
      ],
      [
        "ic",
        "ada"
      ],
      [
        "Ġesc",
        "rib"
      ],
      [
        "I",
        "M"
      ],
      [
        "g",
        "on"
      ],
      [
        "Ġet",
        "c"
      ],
      [
        "Ġso",
        "ci"
      ],
      [
        "ĠB",
        "a"
      ],
      [
        "Ġs",
        "elec"
      ],
      [
        "Ġbus",
        "ca"
      ],
      [
        "Ġen",
        "fer"
      ],
      [
        "Ġproble",
        "ma"
      ],
      [
        "t",
        "ando"
      ],
      [
        "e",
        "ar"
      ],
      [
        "0",
        "2"
      ],
      [
        "ĠH",
        "a"
      ],
      [
        "Ġsol",
        "ici"
      ],
      [
        "Ġencon",
        "tr"
      ],
      [
        "er",
        "ia"
      ],
      [
        "ĠU",
        "S"
      ],
      [
        "L",
        "E"
      ],
      [
        "Ġlo",
        "cal"
      ],
      [
        "Ġmar",
        "zo"
      ],
      [
        "ĠEs",
        "to"
      ],
      [
        "Ġn",
        "orm"
      ],
      [
        "Ġd",
        "omin"
      ],
      [
        "ĠP",
        "AR"
      ],
      [
        "Ġd",
        "ig"
      ],
      [
        "4",
        "9"
      ],
      [
        "Ġcons",
        "um"
      ],
      [
        "Ġno",
        "v"
      ],
      [
        "Ġminu",
        "tos"
      ],
      [
        "j",
        "ar"
      ],
      [
        "g",
        "re"
      ],
      [
        "j",
        "es"
      ],
      [
        "os",
        "o"
      ],
      [
        "Ġmu",
        "es"
      ],
      [
        "Ġp",
        "in"
      ],
      [
        "ĠI",
        "m"
      ],
      [
        "Ġl",
        "i"
      ],
      [
        "res",
        "pon"
      ],
      [
        "Ġjun",
        "io"
      ],
      [
        "ic",
        "Ã³"
      ],
      [
        "an",
        "cia"
      ],
      [
        "ec",
        "u"
      ],
      [
        "di",
        "al"
      ],
      [
        "Ġrela",
        "cion"
      ],
      [
        "Ġen",
        "v"
      ],
      [
        "b",
        "al"
      ],
      [
        "o",
        "z"
      ],
      [
        "Ġsu",
        "r"
      ],
      [
        "Ġac",
        "er"
      ],
      [
        "ĠF",
        "e"
      ],
      [
        "Ġver",
        "dad"
      ],
      [
        "Ġlib",
        "ro"
      ],
      [
        "Ġen",
        "ero"
      ],
      [
        "ĠCu",
        "ando"
      ],
      [
        "Ġa",
        "fec"
      ],
      [
        "Ġm",
        "Ãºs"
      ],
      [
        "ular",
        "es"
      ],
      [
        "Ġal",
        "can"
      ],
      [
        "Ġcom",
        "en"
      ],
      [
        "?",
        "?"
      ],
      [
        "n",
        "er"
      ],
      [
        "f",
        "e"
      ],
      [
        "2",
        "1"
      ],
      [
        "Ġdir",
        "ig"
      ],
      [
        "ĠG",
        "obierno"
      ],
      [
        "Ġfun",
        "d"
      ],
      [
        "Ġmad",
        "rid"
      ],
      [
        "da",
        "des"
      ],
      [
        "Ġg",
        "obierno"
      ],
      [
        "e",
        "v"
      ],
      [
        "on",
        "g"
      ],
      [
        "Ġman",
        "o"
      ],
      [
        "Ġno",
        "che"
      ],
      [
        "or",
        "k"
      ],
      [
        "Ġlib",
        "re"
      ],
      [
        "ĠEs",
        "p"
      ],
      [
        "f",
        "orma"
      ],
      [
        "5",
        "5"
      ],
      [
        "ter",
        "min"
      ],
      [
        "ĠUnivers",
        "idad"
      ],
      [
        "ien",
        "da"
      ],
      [
        "ĠSan",
        "ta"
      ],
      [
        "ik",
        "e"
      ],
      [
        "Ġcomp",
        "rar"
      ],
      [
        "gos",
        "to"
      ],
      [
        "Ġcu",
        "atro"
      ],
      [
        "se",
        "x"
      ],
      [
        "ĠT",
        "en"
      ],
      [
        "Ġin",
        "teg"
      ],
      [
        "ĠEs",
        "tados"
      ],
      [
        "in",
        "aciÃ³n"
      ],
      [
        "ĠH",
        "ombre"
      ],
      [
        "ter",
        "io"
      ],
      [
        "den",
        "cia"
      ],
      [
        "b",
        "lo"
      ],
      [
        "de",
        "z"
      ],
      [
        "Ġcuer",
        "po"
      ],
      [
        "Ġd",
        "iciembre"
      ],
      [
        "Ġincl",
        "uso"
      ],
      [
        "us",
        "iÃ³n"
      ],
      [
        "di",
        "f"
      ],
      [
        "mate",
        "ur"
      ],
      [
        "3",
        "6"
      ],
      [
        "ĠA",
        "h"
      ],
      [
        "Ġpar",
        "tir"
      ],
      [
        "Ġencuen",
        "tra"
      ],
      [
        "Ġv",
        "ie"
      ],
      [
        "Ġes",
        "panol"
      ],
      [
        "Ġo",
        "port"
      ],
      [
        "Ġen",
        "can"
      ],
      [
        "Ġh",
        "emos"
      ],
      [
        "isten",
        "cia"
      ],
      [
        "ĠP",
        "ag"
      ],
      [
        "ten",
        "cia"
      ],
      [
        "an",
        "za"
      ],
      [
        "T",
        "R"
      ],
      [
        "ĠMad",
        "uras"
      ],
      [
        "Ġben",
        "ef"
      ],
      [
        "omb",
        "ia"
      ],
      [
        "tr",
        "al"
      ],
      [
        "Ġun",
        "as"
      ],
      [
        "re",
        "z"
      ],
      [
        "ĠâĢ",
        "Ķ"
      ],
      [
        "Ġpon",
        "er"
      ],
      [
        "Ġsitu",
        "aciÃ³n"
      ],
      [
        "in",
        "d"
      ],
      [
        "Ġs",
        "ac"
      ],
      [
        "Ġj",
        "ulio"
      ],
      [
        "aliz",
        "ar"
      ],
      [
        "Â",
        "¡"
      ],
      [
        "Ġgus",
        "ta"
      ],
      [
        "par",
        "tam"
      ],
      [
        "Ġpr",
        "Ã¡c"
      ],
      [
        "Ġe",
        "jer"
      ],
      [
        "Ġdeb",
        "er"
      ],
      [
        "{",
        "\""
      ],
      [
        "Ġfin",
        "anci"
      ],
      [
        "Ġv",
        "ÃŃ"
      ],
      [
        "cion",
        "ar"
      ],
      [
        "ĠS",
        "E"
      ],
      [
        "Ġlo",
        "g"
      ],
      [
        "ĠNeg",
        "ro"
      ],
      [
        "Ġfr",
        "ente"
      ],
      [
        "Ġel",
        "eg"
      ],
      [
        "ĠN",
        "av"
      ],
      [
        "Ġem",
        "pe"
      ],
      [
        "Ġde",
        "r"
      ],
      [
        "Ġcara",
        "cter"
      ],
      [
        "Ġso",
        "ciales"
      ],
      [
        "r",
        "or"
      ],
      [
        "il",
        "ar"
      ],
      [
        "Ġproduc",
        "to"
      ],
      [
        "Ġmun",
        "icip"
      ],
      [
        "igh",
        "t"
      ],
      [
        "i",
        "ra"
      ],
      [
        "Ġnuev",
        "os"
      ],
      [
        "i",
        "ado"
      ],
      [
        "tar",
        "io"
      ],
      [
        "Ġex",
        "tra"
      ],
      [
        "ĠO",
        "b"
      ],
      [
        "il",
        "a"
      ],
      [
        "3",
        "4"
      ],
      [
        "Ġoc",
        "tubre"
      ],
      [
        "Ġpas",
        "o"
      ],
      [
        "Ġe",
        "ven"
      ],
      [
        "u",
        "a"
      ],
      [
        "Ġser",
        "ie"
      ],
      [
        "Ġj",
        "unto"
      ],
      [
        "Ġactiv",
        "idades"
      ],
      [
        "ic",
        "es"
      ],
      [
        "Ġalgun",
        "as"
      ],
      [
        "Ġtem",
        "por"
      ],
      [
        "Ġtr",
        "an"
      ],
      [
        "Ġabr",
        "il"
      ],
      [
        "Ġv",
        "an"
      ],
      [
        "Ġalgun",
        "a"
      ],
      [
        "ven",
        "es"
      ],
      [
        "in",
        "k"
      ],
      [
        "ta",
        "ble"
      ],
      [
        "ic",
        "amente"
      ],
      [
        "3",
        "9"
      ],
      [
        "Ġcomentar",
        "ios"
      ],
      [
        "Ġna",
        "cional"
      ],
      [
        "Ġa",
        "Ãºn"
      ],
      [
        "Ġcons",
        "eg"
      ],
      [
        "Ã",
        "ģ"
      ],
      [
        "tr",
        "ol"
      ],
      [
        "Ġpro",
        "ces"
      ],
      [
        "z",
        "ul"
      ],
      [
        "v",
        "ista"
      ],
      [
        "ĠA",
        "ir"
      ],
      [
        "g",
        "ado"
      ],
      [
        "Ġv",
        "ir"
      ],
      [
        "C",
        "om"
      ],
      [
        "Ġ",
        "@"
      ],
      [
        "Ġse",
        "ptiembre"
      ],
      [
        "Ġparti",
        "do"
      ],
      [
        "Ġcal",
        "le"
      ],
      [
        "Ġd",
        "ivers"
      ],
      [
        "Ġam",
        "igos"
      ],
      [
        "ic",
        "al"
      ],
      [
        "Â",
        "¿"
      ],
      [
        "â",
        "Ĥ¬"
      ],
      [
        "ĠP",
        "an"
      ],
      [
        "Ġb",
        "eb"
      ],
      [
        "ĠA",
        "L"
      ],
      [
        "ĠUn",
        "idos"
      ],
      [
        "e",
        "e"
      ],
      [
        "Ġun",
        "ivers"
      ],
      [
        "Ġg",
        "aran"
      ],
      [
        "Ġfal",
        "ta"
      ],
      [
        "ĠPor",
        "n"
      ],
      [
        "ad",
        "io"
      ],
      [
        "Ġsec",
        "tor"
      ],
      [
        "I",
        "EN"
      ],
      [
        "Ġb",
        "aj"
      ],
      [
        "eb",
        "ook"
      ],
      [
        "Ġpres",
        "ent"
      ],
      [
        "is",
        "is"
      ],
      [
        "Ġv",
        "arios"
      ],
      [
        "Ġlar",
        "go"
      ],
      [
        "Ã",
        "¼"
      ],
      [
        "Ġpr",
        "ue"
      ],
      [
        "ĠA",
        "y"
      ],
      [
        "Ã³",
        "d"
      ],
      [
        "ĠF",
        "ac"
      ],
      [
        "Ġin",
        "de"
      ],
      [
        "ĠG",
        "o"
      ],
      [
        "ĠpÃºbl",
        "ico"
      ],
      [
        "ĠT",
        "i"
      ],
      [
        "ĠÃºlti",
        "mo"
      ],
      [
        "es",
        "a"
      ],
      [
        "Ġbas",
        "e"
      ],
      [
        "ĠB",
        "l"
      ],
      [
        "ĠM",
        "er"
      ],
      [
        "duci",
        "r"
      ],
      [
        "Ġn",
        "av"
      ],
      [
        "ab",
        "ilidad"
      ],
      [
        "Ġof",
        "rec"
      ],
      [
        "ador",
        "as"
      ],
      [
        "ĠS",
        "a"
      ],
      [
        "7",
        "8"
      ],
      [
        "Ġno",
        "viembre"
      ],
      [
        "Ġ",
        "ero"
      ],
      [
        "truc",
        "ciÃ³n"
      ],
      [
        "Ġo",
        "cas"
      ],
      [
        "Ġind",
        "ustr"
      ],
      [
        "Ġen",
        "erg"
      ],
      [
        "ĠDE",
        "L"
      ],
      [
        "Ġf",
        "on"
      ],
      [
        "Ġci",
        "tas"
      ],
      [
        "Ġob",
        "l"
      ],
      [
        "om",
        "ÃŃa"
      ],
      [
        "A",
        "l"
      ],
      [
        "im",
        "on"
      ],
      [
        "Ã¡",
        "r"
      ],
      [
        "Ġresul",
        "tados"
      ],
      [
        "ĠfÃ¡",
        "cil"
      ],
      [
        "l",
        "y"
      ],
      [
        "201",
        "7"
      ],
      [
        "Ġf",
        "e"
      ],
      [
        ".",
        ","
      ],
      [
        "Ġpos",
        "i"
      ],
      [
        "Ġcons",
        "ul"
      ],
      [
        "Ġan",
        "terior"
      ],
      [
        "ĠIn",
        "d"
      ],
      [
        "Ġar",
        "tÃŃculo"
      ],
      [
        "m",
        "ac"
      ],
      [
        "ĠH",
        "ab"
      ],
      [
        "ra",
        "ciÃ³n"
      ],
      [
        "L",
        "A"
      ],
      [
        "ĠPr",
        "im"
      ],
      [
        "Ġe",
        "uros"
      ],
      [
        "o",
        "k"
      ],
      [
        "ĠAs",
        "ÃŃ"
      ],
      [
        "Ġpun",
        "tos"
      ],
      [
        "g",
        "ue"
      ],
      [
        "on",
        "os"
      ],
      [
        "as",
        "e"
      ],
      [
        "ru",
        "z"
      ],
      [
        "Ġesto",
        "y"
      ],
      [
        "ĠD",
        "ios"
      ],
      [
        "Ġ",
        "q"
      ],
      [
        "ig",
        "u"
      ],
      [
        "Ġpo",
        "demos"
      ],
      [
        "Ġaten",
        "ciÃ³n"
      ],
      [
        "d",
        "s"
      ],
      [
        "Ġbus",
        "car"
      ],
      [
        "Ġre",
        "un"
      ],
      [
        "ĠPar",
        "eja"
      ],
      [
        "Ġf",
        "ebrero"
      ],
      [
        "Ġpodr",
        "ÃŃa"
      ],
      [
        "ien",
        "t"
      ],
      [
        "Ġf",
        "el"
      ],
      [
        "ch",
        "es"
      ],
      [
        "Ġ",
        "iden"
      ],
      [
        "Ġde",
        "cl"
      ],
      [
        "ra",
        "c"
      ],
      [
        "Ġre",
        "alidad"
      ],
      [
        "Ġgran",
        "de"
      ],
      [
        "ic",
        "ante"
      ],
      [
        "Ġpas",
        "ar"
      ],
      [
        "Ġte",
        "x"
      ],
      [
        "b",
        "il"
      ],
      [
        "in",
        "do"
      ],
      [
        "ĠDes",
        "de"
      ],
      [
        "Ġnuev",
        "as"
      ],
      [
        "Ġay",
        "uda"
      ],
      [
        "ic",
        "ados"
      ],
      [
        "ĠC",
        "er"
      ],
      [
        "ter",
        "na"
      ],
      [
        "Ġmo",
        "v"
      ],
      [
        "Ã©f",
        "ono"
      ],
      [
        "k",
        "et"
      ],
      [
        "Ġto",
        "mar"
      ],
      [
        "ud",
        "os"
      ],
      [
        "Ġbus",
        "c"
      ],
      [
        "ĠE",
        "ro"
      ],
      [
        "Ġpr",
        "omo"
      ],
      [
        "di",
        "Ã³"
      ],
      [
        "ĠR",
        "ed"
      ],
      [
        "D",
        "O"
      ],
      [
        "ĠP",
        "lan"
      ],
      [
        "Ġobje",
        "tivo"
      ],
      [
        "t",
        "ÃŃn"
      ],
      [
        "Ġbuen",
        "o"
      ],
      [
        "iz",
        "ar"
      ],
      [
        "ĠpolÃŃ",
        "tica"
      ],
      [
        "is",
        "h"
      ],
      [
        "Ġm",
        "ul"
      ],
      [
        "Ġcas",
        "os"
      ],
      [
        "ĠGener",
        "al"
      ],
      [
        "k",
        "a"
      ],
      [
        "gres",
        "o"
      ],
      [
        "ĠR",
        "ela"
      ],
      [
        "Ġ19",
        "9"
      ],
      [
        "Ġr",
        "ies"
      ],
      [
        "L",
        "O"
      ],
      [
        "ti",
        "z"
      ],
      [
        "Ġopin",
        "iÃ³n"
      ],
      [
        "Ġg",
        "r"
      ],
      [
        "ĠF",
        "ree"
      ],
      [
        "Ġal",
        "g"
      ],
      [
        "A",
        "B"
      ],
      [
        "Ġcre",
        "o"
      ],
      [
        "Ġenfer",
        "m"
      ],
      [
        "pues",
        "tas"
      ],
      [
        "Ġ",
        "Ã©s"
      ],
      [
        "Ã©",
        "di"
      ],
      [
        "ter",
        "os"
      ],
      [
        "em",
        "or"
      ],
      [
        "ÃŃtu",
        "lo"
      ],
      [
        "ĠSu",
        "per"
      ],
      [
        "ti",
        "en"
      ],
      [
        "Ġb",
        "ara"
      ],
      [
        "Ġsegun",
        "da"
      ],
      [
        "4",
        "8"
      ],
      [
        "p",
        "ed"
      ],
      [
        "ci",
        "den"
      ],
      [
        "Ġl",
        "l"
      ],
      [
        "Ã",
        "ĳ"
      ],
      [
        "Ġvi",
        "ol"
      ],
      [
        "Ġins",
        "titu"
      ],
      [
        "Ġcor",
        "respon"
      ],
      [
        "Ġdej",
        "ar"
      ],
      [
        "Ġespa",
        "cio"
      ],
      [
        "Ġs",
        "iendo"
      ],
      [
        "Ã©r",
        "ica"
      ],
      [
        "Ġper",
        "io"
      ],
      [
        "Ġv",
        "ac"
      ],
      [
        "Ġactiv",
        "idad"
      ],
      [
        "ĠY",
        "a"
      ],
      [
        "j",
        "us"
      ],
      [
        "es",
        "ta"
      ],
      [
        "Ã±",
        "ana"
      ],
      [
        "Ġus",
        "ted"
      ],
      [
        "Ġneg",
        "ro"
      ],
      [
        "Ã³n",
        "ico"
      ],
      [
        "Ġsegun",
        "do"
      ],
      [
        "le",
        "x"
      ],
      [
        "ĠC",
        "ris"
      ],
      [
        "ĠOn",
        "line"
      ],
      [
        "d",
        "ico"
      ],
      [
        "cion",
        "ado"
      ],
      [
        "Ġen",
        "tonces"
      ],
      [
        "ÃŃs",
        "ticas"
      ],
      [
        "Ġdere",
        "cho"
      ],
      [
        "tu",
        "ro"
      ],
      [
        "Ġpo",
        "p"
      ],
      [
        "ĠS",
        "on"
      ],
      [
        "ab",
        "e"
      ],
      [
        "gu",
        "ien"
      ],
      [
        "Ġel",
        "em"
      ],
      [
        "Ġl",
        "an"
      ],
      [
        "a",
        "f"
      ],
      [
        "g",
        "et"
      ],
      [
        "Ġr",
        "om"
      ],
      [
        "if",
        "icaciÃ³n"
      ],
      [
        "Ġac",
        "om"
      ],
      [
        "ĠpaÃŃs",
        "es"
      ],
      [
        "ĠAr",
        "gentina"
      ],
      [
        "vis",
        "iÃ³n"
      ],
      [
        "Ġde",
        "termin"
      ],
      [
        "Ġayud",
        "ar"
      ],
      [
        "Ġgra",
        "tu"
      ],
      [
        "Ġprincip",
        "al"
      ],
      [
        "ĠLu",
        "is"
      ],
      [
        "ĠC",
        "os"
      ],
      [
        "eg",
        "a"
      ],
      [
        "Ġmode",
        "lo"
      ],
      [
        "ti",
        "ene"
      ],
      [
        "Ġp",
        "uer"
      ],
      [
        "Ġs",
        "os"
      ],
      [
        "Ġpermi",
        "te"
      ],
      [
        "Ġpa",
        "pel"
      ],
      [
        "Ġres",
        "ta"
      ],
      [
        "Ġb",
        "log"
      ],
      [
        "ĠR",
        "E"
      ],
      [
        "Ġlab",
        "or"
      ],
      [
        "4",
        "6"
      ],
      [
        "Ã³",
        "l"
      ],
      [
        "ĠH",
        "ay"
      ],
      [
        "ĠG",
        "al"
      ],
      [
        "4",
        "7"
      ],
      [
        "Ġch",
        "ica"
      ],
      [
        "Ġs",
        "ens"
      ],
      [
        "t",
        "m"
      ],
      [
        "Ġmedi",
        "ante"
      ],
      [
        "Ġres",
        "erv"
      ],
      [
        "Ġprim",
        "ero"
      ],
      [
        "es",
        "s"
      ],
      [
        "te",
        "x"
      ],
      [
        "Ġal",
        "um"
      ],
      [
        "Ġtien",
        "es"
      ],
      [
        "v",
        "esti"
      ],
      [
        "ĠseÃ±",
        "al"
      ],
      [
        "ĠGra",
        "cias"
      ],
      [
        "Ġh",
        "izo"
      ],
      [
        "I",
        "CI"
      ],
      [
        "Ġcan",
        "tidad"
      ],
      [
        "Ġlle",
        "var"
      ],
      [
        "!!",
        "!"
      ],
      [
        "Ġob",
        "ra"
      ],
      [
        "Ġcar",
        "r"
      ],
      [
        "Ġim",
        "pres"
      ],
      [
        "Ġjo",
        "ven"
      ],
      [
        "Ġcon",
        "j"
      ],
      [
        "Ġd",
        "ia"
      ],
      [
        "Ġa",
        "van"
      ],
      [
        "Ġm",
        "ir"
      ],
      [
        "ra",
        "g"
      ],
      [
        "ĠCi",
        "udad"
      ],
      [
        "Ġsen",
        "tido"
      ],
      [
        "ĠWeb",
        "cam"
      ],
      [
        "Ġyo",
        "u"
      ],
      [
        "ĠRe",
        "al"
      ],
      [
        "Ġo",
        "cur"
      ],
      [
        "is",
        "tra"
      ],
      [
        "tr",
        "imon"
      ],
      [
        "Ġhotel",
        "es"
      ],
      [
        "ĠCas",
        "a"
      ],
      [
        "Ġ",
        "%"
      ],
      [
        "Ġcor",
        "r"
      ],
      [
        "ar",
        "i"
      ],
      [
        "Ġde",
        "d"
      ],
      [
        "ĠT",
        "h"
      ],
      [
        "Ġa",
        "gosto"
      ],
      [
        "Ġdis",
        "tr"
      ],
      [
        "ĠH",
        "ombres"
      ],
      [
        "Ġcon",
        "ven"
      ],
      [
        "T",
        "ER"
      ],
      [
        "Ġes",
        "tra"
      ],
      [
        "h",
        "ttp"
      ],
      [
        "Ġofre",
        "ce"
      ],
      [
        "le",
        "c"
      ],
      [
        "Ġf",
        "abr"
      ],
      [
        "C",
        "H"
      ],
      [
        "t",
        "Ã³n"
      ],
      [
        "ul",
        "tos"
      ],
      [
        "ul",
        "t"
      ],
      [
        "Ġsim",
        "ple"
      ],
      [
        "p",
        "ia"
      ],
      [
        "Ġen",
        "vi"
      ],
      [
        "ram",
        "ien"
      ],
      [
        "us",
        "e"
      ],
      [
        "Ġcel",
        "eb"
      ],
      [
        "Ġmayor",
        "ÃŃa"
      ],
      [
        "c",
        "ÃŃa"
      ],
      [
        "vi",
        "tar"
      ],
      [
        "Ġd",
        "om"
      ],
      [
        "b",
        "ios"
      ],
      [
        "Ġs",
        "or"
      ],
      [
        "Ġdise",
        "Ã±o"
      ],
      [
        "t",
        "bol"
      ],
      [
        "Ġaseg",
        "ur"
      ],
      [
        "ti",
        "Ã³"
      ],
      [
        "p",
        "in"
      ],
      [
        "Ġcondi",
        "ciones"
      ],
      [
        "ĠMar",
        "ÃŃa"
      ],
      [
        "Ã©c",
        "tr"
      ],
      [
        "Ġab",
        "s"
      ],
      [
        "I",
        "G"
      ],
      [
        "ici",
        "dad"
      ],
      [
        "graf",
[...]
